{
  "version": "1.0",
  "truncation": null,
  "padding": null,
  "added_tokens": [
    {
      "id": 0,
      "content": "[PAD]",
      "single_word": false,
      "lstrip": false,
      "rstrip": false,
      "normalized": false,
      "special": true
    },
    {
      "id": 1,
      "content": "[UNK]",
      "single_word": false,
      "lstrip": false,
      "rstrip": false,
      "normalized": false,
      "special": true
    },
    {
      "id": 2,
      "content": "[CLS]",
      "single_word": false,
      "lstrip": false,
      "rstrip": false,
      "normalized": false,
      "special": true
    },
    {
      "id": 3,
      "content": "[SEP]",
      "single_word": false,
      "lstrip": false,
      "rstrip": false,
      "normalized": false,
      "special": true
    },
    {
      "id": 4,
      "content": "[MASK]",
      "single_word": false,
      "lstrip": false,
      "rstrip": false,
      "normalized": false,
      "special": true
    },
    {
      "id": 5,
      "content": "[VERSE]",
      "single_word": false,
      "lstrip": false,
      "rstrip": false,
      "normalized": false,
      "special": true
    },
    {
      "id": 6,
      "content": "[STANZA]",
      "single_word": false,
      "lstrip": false,
      "rstrip": false,
      "normalized": false,
      "special": true
    }
  ],
  "normalizer": null,
  "pre_tokenizer": {
    "type": "Whitespace"
  },
  "post_processor": null,
  "decoder": {
    "type": "WordPiece",
    "prefix": "##",
    "cleanup": true
  },
  "model": {
    "type": "WordPiece",
    "unk_token": "[UNK]",
    "continuing_subword_prefix": "##",
    "max_input_chars_per_word": 100,
    "vocab": {
      "[PAD]": 0,
      "[UNK]": 1,
      "[CLS]": 2,
      "[SEP]": 3,
      "[MASK]": 4,
      "[VERSE]": 5,
      "[STANZA]": 6,
      "!": 7,
      "\"": 8,
      "'": 9,
      "(": 10,
      ")": 11,
      "*": 12,
      "+": 13,
      ",": 14,
      "-": 15,
      ".": 16,
      "/": 17,
      "0": 18,
      "1": 19,
      "2": 20,
      "3": 21,
      "4": 22,
      "5": 23,
      "6": 24,
      "7": 25,
      "8": 26,
      "9": 27,
      ":": 28,
      ";": 29,
      "<": 30,
      "=": 31,
      ">": 32,
      "?": 33,
      "[": 34,
      "]": 35,
      "_": 36,
      "`": 37,
      "a": 38,
      "b": 39,
      "c": 40,
      "d": 41,
      "e": 42,
      "f": 43,
      "g": 44,
      "h": 45,
      "i": 46,
      "j": 47,
      "k": 48,
      "l": 49,
      "m": 50,
      "n": 51,
      "o": 52,
      "p": 53,
      "q": 54,
      "r": 55,
      "s": 56,
      "t": 57,
      "u": 58,
      "v": 59,
      "w": 60,
      "x": 61,
      "y": 62,
      "z": 63,
      "|": 64,
      "##b": 65,
      "##e": 66,
      "##c": 67,
      "##a": 68,
      "##m": 69,
      "##o": 70,
      "##r": 71,
      "##t": 72,
      "##i": 73,
      "##v": 74,
      "##u": 75,
      "##p": 76,
      "##n": 77,
      "##s": 78,
      "##d": 79,
      "##g": 80,
      "##q": 81,
      "##j": 82,
      "##l": 83,
      "##f": 84,
      "##z": 85,
      "##h": 86,
      "##y": 87,
      "##x": 88,
      "##>": 89,
      "##.": 90,
      "##6": 91,
      "##/": 92,
      "##8": 93,
      "##1": 94,
      "##2": 95,
      "##0": 96,
      "##3": 97,
      "##5": 98,
      "##,": 99,
      "##<": 100,
      "##)": 101,
      "##!": 102,
      "##k": 103,
      "##w": 104,
      "##4": 105,
      "##;": 106,
      "##:": 107,
      "##\"": 108,
      "##?": 109,
      "##'": 110,
      "##-": 111,
      "##]": 112,
      "##9": 113,
      "##7": 114,
      "##+": 115,
      "##|": 116,
      "##[": 117,
      "##_": 118,
      "##(": 119,
      "##er": 120,
      "##se": 121,
      "ver": 122,
      "verse": 123,
      "##an": 124,
      "##on": 125,
      "##or": 126,
      "##en": 127,
      "ch": 128,
      "##to": 129,
      "##ar": 130,
      "##el": 131,
      "##ia": 132,
      "di": 133,
      "##te": 134,
      "##ta": 135,
      "che": 136,
      "##ra": 137,
      "##za": 138,
      "##ol": 139,
      "st": 140,
      "in": 141,
      "##ti": 142,
      "al": 143,
      "la": 144,
      "qu": 145,
      "##re": 146,
      "##anza": 147,
      "##io": 148,
      "stanza": 149,
      "##al": 150,
      "il": 151,
      "##os": 152,
      "##es": 153,
      "##do": 154,
      "##in": 155,
      "##ro": 156,
      "##li": 157,
      "##ri": 158,
      "per": 159,
      "non": 160,
      "##cc": 161,
      "se": 162,
      "si": 163,
      "##gn": 164,
      "##de": 165,
      "con": 166,
      "pi": 167,
      "le": 168,
      "su": 169,
      "de": 170,
      "##om": 171,
      "##ell": 172,
      "tu": 173,
      "##ce": 174,
      "un": 175,
      "ma": 176,
      "vi": 177,
      "##so": 178,
      "##si": 179,
      "##ch": 180,
      "##tto": 181,
      "##di": 182,
      "##ve": 183,
      "##co": 184,
      "##un": 185,
      "mi": 186,
      "##ma": 187,
      "##oi": 188,
      "ne": 189,
      "##gg": 190,
      "ri": 191,
      "##mp": 192,
      "##no": 193,
      "an": 194,
      "sp": 195,
      "##ui": 196,
      "##ci": 197,
      "##le": 198,
      "ca": 199,
      "##da": 200,
      "da": 201,
      "fa": 202,
      "##va": 203,
      "##mi": 204,
      "##sa": 205,
      "piu": 206,
      "com": 207,
      "##ran": 208,
      "##vi": 209,
      "##tro": 210,
      "fu": 211,
      "##me": 212,
      "par": 213,
      "ar": 214,
      "io": 215,
      "me": 216,
      "##la": 217,
      "del": 218,
      "cor": 219,
      "##gli": 220,
      "te": 221,
      "##ando": 222,
      "##anto": 223,
      "##gl": 224,
      "##ente": 225,
      "##ella": 226,
      "##ca": 227,
      "pa": 228,
      "so": 229,
      "am": 230,
      "gli": 231,
      "ve": 232,
      "ques": 233,
      "##tra": 234,
      "##ore": 235,
      "chi": 236,
      "ha": 237,
      "fi": 238,
      "gi": 239,
      "ci": 240,
      "li": 241,
      "pu": 242,
      "##are": 243,
      "or": 244,
      "po": 245,
      "et": 246,
      "##mo": 247,
      "##tta": 248,
      "##sc": 249,
      "sol": 250,
      "vol": 251,
      "##gi": 252,
      "##na": 253,
      "lo": 254,
      "mor": 255,
      "##che": 256,
      "##tu": 257,
      "##pp": 258,
      "col": 259,
      "come": 260,
      "ogn": 261,
      "##bb": 262,
      "re": 263,
      "quel": 264,
      "cos": 265,
      "on": 266,
      "pre": 267,
      "##enti": 268,
      "for": 269,
      "##cch": 270,
      "ben": 271,
      "dis": 272,
      "sc": 273,
      "##era": 274,
      "##qu": 275,
      "el": 276,
      "##ero": 277,
      "##tti": 278,
      "##ggi": 279,
      "suo": 280,
      "es": 281,
      "##ano": 282,
      "mio": 283,
      "sa": 284,
      "##tor": 285,
      "##bi": 286,
      "##lo": 287,
      "##ere": 288,
      "no": 289,
      "##tri": 290,
      "ra": 291,
      "##go": 292,
      "gran": 293,
      "ti": 294,
      "poi": 295,
      "as": 296,
      "do": 297,
      "av": 298,
      "##ff": 299,
      "tra": 300,
      "##gno": 301,
      "ven": 302,
      "du": 303,
      "pen": 304,
      "##ga": 305,
      "##gu": 306,
      "dol": 307,
      "nel": 308,
      "##tte": 309,
      "son": 310,
      "##pi": 311,
      "##glia": 312,
      "gia": 313,
      "sen": 314,
      "##us": 315,
      "##tre": 316,
      "ogni": 317,
      "##one": 318,
      "##ante": 319,
      "ad": 320,
      "##endo": 321,
      "##elle": 322,
      "##ne": 323,
      "qual": 324,
      "man": 325,
      "##eri": 326,
      "##ora": 327,
      "fe": 328,
      "##tr": 329,
      "##vo": 330,
      "##sso": 331,
      "co": 332,
      "##chi": 333,
      "##erra": 334,
      "mon": 335,
      "dal": 336,
      "##ni": 337,
      "##glio": 338,
      "don": 339,
      "pro": 340,
      "mar": 341,
      "pri": 342,
      "##gna": 343,
      "##zi": 344,
      "lu": 345,
      "far": 346,
      "ed": 347,
      "gu": 348,
      "por": 349,
      "##ge": 350,
      "car": 351,
      "##ru": 352,
      "amor": 353,
      "vo": 354,
      "acc": 355,
      "des": 356,
      "mai": 357,
      "##ento": 358,
      "lor": 359,
      "##cchi": 360,
      "##anti": 361,
      "sua": 362,
      "na": 363,
      "##ver": 364,
      "##ino": 365,
      "##pe": 366,
      "era": 367,
      "##po": 368,
      "una": 369,
      "va": 370,
      "ciel": 371,
      "tal": 372,
      "pur": 373,
      "tor": 374,
      "##mb": 375,
      "men": 376,
      "mia": 377,
      "questo": 378,
      "##tar": 379,
      "##zz": 380,
      "pos": 381,
      "tro": 382,
      "sta": 383,
      "tanto": 384,
      "##mpre": 385,
      "##que": 386,
      "##der": 387,
      "pe": 388,
      "ba": 389,
      "##ina": 390,
      "pie": 391,
      "all": 392,
      "gra": 393,
      "##ssi": 394,
      "##anno": 395,
      "##mpo": 396,
      "nu": 397,
      "gio": 398,
      "er": 399,
      "cu": 400,
      "##zza": 401,
      "##sse": 402,
      "cosi": 403,
      "altro": 404,
      "##ello": 405,
      "sia": 406,
      "bel": 407,
      "voi": 408,
      "fra": 409,
      "##ei": 410,
      "qui": 411,
      "##ron": 412,
      "##ten": 413,
      "##ser": 414,
      "cre": 415,
      "##ccia": 416,
      "##ba": 417,
      "lui": 418,
      "mol": 419,
      "tuo": 420,
      "##ir": 421,
      "quando": 422,
      "mal": 423,
      "##ren": 424,
      "##gh": 425,
      "perche": 426,
      "##ine": 427,
      "##ggio": 428,
      "ser": 429,
      "##vea": 430,
      "tutto": 431,
      "##per": 432,
      "pia": 433,
      "##ini": 434,
      "can": 435,
      "cer": 436,
      "##du": 437,
      "##pra": 438,
      "sempre": 439,
      "##ori": 440,
      "sal": 441,
      "##ara": 442,
      "quella": 443,
      "app": 444,
      "##aro": 445,
      "##cor": 446,
      "##sta": 447,
      "##mente": 448,
      "##pa": 449,
      "cui": 450,
      "##esta": 451,
      "questa": 452,
      "onde": 453,
      "mos": 454,
      "##ura": 455,
      "en": 456,
      "mo": 457,
      "inf": 458,
      "##ole": 459,
      "##ene": 460,
      "##tt": 461,
      "terra": 462,
      "##con": 463,
      "morte": 464,
      "##sci": 465,
      "dolce": 466,
      "##sti": 467,
      "##cci": 468,
      "qua": 469,
      "##oso": 470,
      "##una": 471,
      "##anta": 472,
      "val": 473,
      "##val": 474,
      "##orno": 475,
      "occhi": 476,
      "alla": 477,
      "quanto": 478,
      "fia": 479,
      "mondo": 480,
      "imp": 481,
      "aff": 482,
      "##ssa": 483,
      "##cia": 484,
      "vos": 485,
      "##bbe": 486,
      "bi": 487,
      "nos": 488,
      "##lle": 489,
      "##sto": 490,
      "vita": 491,
      "ac": 492,
      "bu": 493,
      "senza": 494,
      "##cca": 495,
      "##ggia": 496,
      "tempo": 497,
      "ris": 498,
      "##ona": 499,
      "##eli": 500,
      "lei": 501,
      "dove": 502,
      "fin": 503,
      "##esti": 504,
      "ro": 505,
      "ru": 506,
      "altri": 507,
      "##dre": 508,
      "fer": 509,
      "##ter": 510,
      "mu": 511,
      "##ria": 512,
      "sign": 513,
      "##ari": 514,
      "##osa": 515,
      "##man": 516,
      "caval": 517,
      "san": 518,
      "##torno": 519,
      "tutti": 520,
      "##tura": 521,
      "ho": 522,
      "##gni": 523,
      "sor": 524,
      "tua": 525,
      "parte": 526,
      "sos": 527,
      "##pre": 528,
      "gl": 529,
      "fo": 530,
      "ai": 531,
      "au": 532,
      "##esse": 533,
      "esser": 534,
      "puo": 535,
      "##zzo": 536,
      "ten": 537,
      "vu": 538,
      "##dar": 539,
      "ta": 540,
      "noi": 541,
      "alc": 542,
      "##lla": 543,
      "ove": 544,
      "donna": 545,
      "ella": 546,
      "##uto": 547,
      "altra": 548,
      "##qui": 549,
      "##cco": 550,
      "pensi": 551,
      "##gge": 552,
      "disse": 553,
      "##esso": 554,
      "##mor": 555,
      "##eno": 556,
      "lun": 557,
      "dio": 558,
      "alma": 559,
      "##sen": 560,
      "##glie": 561,
      "##zia": 562,
      "cru": 563,
      "ter": 564,
      "##ant": 565,
      "vede": 566,
      "##gion": 567,
      "bella": 568,
      "ancor": 569,
      "pal": 570,
      "bra": 571,
      "amore": 572,
      "abb": 573,
      "pian": 574,
      "tre": 575,
      "egli": 576,
      "via": 577,
      "##ende": 578,
      "sopra": 579,
      "lie": 580,
      "##vol": 581,
      "fos": 582,
      "genti": 583,
      "##dio": 584,
      "##ea": 585,
      "vir": 586,
      "cal": 587,
      "giu": 588,
      "spa": 589,
      "##rar": 590,
      "suoi": 591,
      "prima": 592,
      "##fi": 593,
      "##elo": 594,
      "##ven": 595,
      "##be": 596,
      "##ardo": 597,
      "##tal": 598,
      "die": 599,
      "##st": 600,
      "##gue": 601,
      "##bo": 602,
      "ni": 603,
      "##ghi": 604,
      "giorno": 605,
      "##ss": 606,
      "poco": 607,
      "ani": 608,
      "##dia": 609,
      "##men": 610,
      "##don": 611,
      "core": 612,
      "avea": 613,
      "##mon": 614,
      "ste": 615,
      "to": 616,
      "##mpi": 617,
      "##bil": 618,
      "tri": 619,
      "virtu": 620,
      "inc": 621,
      "##gui": 622,
      "fre": 623,
      "cio": 624,
      "vin": 625,
      "##ccio": 626,
      "##ome": 627,
      "##olo": 628,
      "ei": 629,
      "alto": 630,
      "##unque": 631,
      "fal": 632,
      "##del": 633,
      "##ena": 634,
      "##ana": 635,
      "##ani": 636,
      "intorno": 637,
      "##..": 638,
      "##var": 639,
      "gente": 640,
      "alcun": 641,
      "##rin": 642,
      "della": 643,
      "alle": 644,
      "##cu": 645,
      "##ola": 646,
      "##mbra": 647,
      "fatto": 648,
      "ora": 649,
      "##mai": 650,
      "signor": 651,
      "##qua": 652,
      "spe": 653,
      "forte": 654,
      "##ber": 655,
      "cosa": 656,
      "##osto": 657,
      "cia": 658,
      "##zio": 659,
      "dir": 660,
      "dar": 661,
      "##scia": 662,
      "stra": 663,
      "##mento": 664,
      "cielo": 665,
      "dice": 666,
      "chia": 667,
      "##este": 668,
      "rin": 669,
      "##sce": 670,
      "##and": 671,
      "##ppo": 672,
      "scu": 673,
      "mer": 674,
      "sole": 675,
      "##gio": 676,
      "buon": 677,
      "fron": 678,
      "##pri": 679,
      "den": 680,
      "contra": 681,
      "miei": 682,
      "go": 683,
      "##cer": 684,
      "fur": 685,
      "##mar": 686,
      "altr": 687,
      "sue": 688,
      "giun": 689,
      "gri": 690,
      "sti": 691,
      "ami": 692,
      "ing": 693,
      "tutta": 694,
      "tol": 695,
      "hor": 696,
      "##for": 697,
      "##etto": 698,
      "pero": 699,
      "mie": 700,
      "ved": 701,
      "spi": 702,
      "mille": 703,
      "int": 704,
      "##lando": 705,
      "fuor": 706,
      "mano": 707,
      "parti": 708,
      "##ur": 709,
      "##zo": 710,
      "guar": 711,
      "rom": 712,
      "scor": 713,
      "##anni": 714,
      "##hi": 715,
      "##cchio": 716,
      "sotto": 717,
      "pun": 718,
      "porta": 719,
      "##tia": 720,
      "ard": 721,
      "pote": 722,
      "lan": 723,
      "senti": 724,
      "##sai": 725,
      "bene": 726,
      "pon": 727,
      "im": 728,
      "questi": 729,
      "belle": 730,
      "##ul": 731,
      "##rando": 732,
      "glor": 733,
      "anch": 734,
      "uom": 735,
      "pieta": 736,
      "##anzi": 737,
      "##osi": 738,
      "##gia": 739,
      "ce": 740,
      "##cio": 741,
      "petto": 742,
      "##oni": 743,
      "veder": 744,
      "forza": 745,
      "eter": 746,
      "ave": 747,
      "altrui": 748,
      "##esto": 749,
      "mente": 750,
      "anti": 751,
      "solo": 752,
      "pren": 753,
      "sper": 754,
      "fon": 755,
      "dell": 756,
      "rip": 757,
      "cel": 758,
      "ciasc": 759,
      "##ste": 760,
      "mentre": 761,
      "sara": 762,
      "aver": 763,
      "aspe": 764,
      "##fa": 765,
      "asc": 766,
      "##ale": 767,
      "uno": 768,
      "##ese": 769,
      "allor": 770,
      "molto": 771,
      "##end": 772,
      "usci": 773,
      "mis": 774,
      "viso": 775,
      "segui": 776,
      "bar": 777,
      "assai": 778,
      "sono": 779,
      "tur": 780,
      "fran": 781,
      "quei": 782,
      "##ll": 783,
      "pensier": 784,
      "forse": 785,
      "tutte": 786,
      "##trar": 787,
      "##aldo": 788,
      "nuo": 789,
      "gui": 790,
      "havea": 791,
      "nome": 792,
      "##enza": 793,
      "notte": 794,
      "ama": 795,
      "##gne": 796,
      "temp": 797,
      "conte": 798,
      "ardi": 799,
      "crudel": 800,
      "lon": 801,
      "invi": 802,
      "sospi": 803,
      "##tuna": 804,
      "##ze": 805,
      "corte": 806,
      "off": 807,
      "foco": 808,
      "spar": 809,
      "natura": 810,
      "##elli": 811,
      "due": 812,
      "hai": 813,
      "##esa": 814,
      "volto": 815,
      "vostro": 816,
      "schi": 817,
      "pianto": 818,
      "##onde": 819,
      "sangue": 820,
      "##ono": 821,
      "cri": 822,
      "ga": 823,
      "##essi": 824,
      "##van": 825,
      "orlando": 826,
      "dentro": 827,
      "##ire": 828,
      "ol": 829,
      "##car": 830,
      "pace": 831,
      "##gra": 832,
      "arme": 833,
      "sco": 834,
      "luce": 835,
      "div": 836,
      "##sie": 837,
      "##mma": 838,
      "lascia": 839,
      "##anco": 840,
      "##oli": 841,
      "fece": 842,
      "vien": 843,
      "fede": 844,
      "sov": 845,
      "alta": 846,
      "ond": 847,
      "tanta": 848,
      "ciascun": 849,
      "altre": 850,
      "padre": 851,
      "fan": 852,
      "guerra": 853,
      "maggi": 854,
      "grande": 855,
      "figli": 856,
      "##tate": 857,
      "nostro": 858,
      "stato": 859,
      "sci": 860,
      "fortuna": 861,
      "be": 862,
      "feri": 863,
      "anni": 864,
      "cavalli": 865,
      "dile": 866,
      "udi": 867,
      "##oro": 868,
      "parole": 869,
      "queste": 870,
      "faccia": 871,
      "##elice": 872,
      "quivi": 873,
      "super": 874,
      "indi": 875,
      "##esi": 876,
      "##bbia": 877,
      "sac": 878,
      "fuggi": 879,
      "quasi": 880,
      "##gua": 881,
      "##jj": 882,
      "gre": 883,
      "##tin": 884,
      "##ess": 885,
      "mira": 886,
      "##vien": 887,
      "troppo": 888,
      "fosse": 889,
      "tosto": 890,
      "morto": 891,
      "lasci": 892,
      "vuol": 893,
      "bo": 894,
      "sul": 895,
      "nun": 896,
      "sei": 897,
      "som": 898,
      "##tan": 899,
      "ira": 900,
      "cons": 901,
      "anc": 902,
      "dei": 903,
      "##eso": 904,
      "disc": 905,
      "loco": 906,
      "is": 907,
      "bal": 908,
      "cam": 909,
      "compa": 910,
      "vero": 911,
      "que": 912,
      "##sieme": 913,
      "pena": 914,
      "##gri": 915,
      "oro": 916,
      "##ghe": 917,
      "##lu": 918,
      "sde": 919,
      "campo": 920,
      "face": 921,
      "quello": 922,
      "quin": 923,
      "vide": 924,
      "gloria": 925,
      "scri": 926,
      "mezzo": 927,
      "##cto": 928,
      "fior": 929,
      "primo": 930,
      "cin": 931,
      "pio": 932,
      "anzi": 933,
      "lume": 934,
      "canto": 935,
      "cose": 936,
      "insieme": 937,
      "volte": 938,
      "ecco": 939,
      "chiu": 940,
      "eran": 941,
      "dim": 942,
      "spesso": 943,
      "stu": 944,
      "fare": 945,
      "spir": 946,
      "dolor": 947,
      "##pol": 948,
      "loro": 949,
      "dunque": 950,
      "parl": 951,
      "mostra": 952,
      "ruggi": 953,
      "vento": 954,
      "##uro": 955,
      "passa": 956,
      "dri": 957,
      "hu": 958,
      "citta": 959,
      "sel": 960,
      "tuoi": 961,
      "voce": 962,
      "disp": 963,
      "##gione": 964,
      "ragion": 965,
      "seco": 966,
      "risp": 967,
      "ancora": 968,
      "spl": 969,
      "##osso": 970,
      "voglia": 971,
      "verso": 972,
      "chio": 973,
      "##cque": 974,
      "##menti": 975,
      "arma": 976,
      "##ttor": 977,
      "##ede": 978,
      "chiaro": 979,
      "appre": 980,
      "morta": 981,
      "quell": 982,
      "fiu": 983,
      "hav": 984,
      "ang": 985,
      "guer": 986,
      "##tare": 987,
      "##usto": 988,
      "##rai": 989,
      "quelle": 990,
      "sola": 991,
      "vor": 992,
      "accor": 993,
      "carlo": 994,
      "deh": 995,
      "fol": 996,
      "gentil": 997,
      "maggior": 998,
      "ge": 999,
      "regno": 1000,
      "##ela": 1001,
      "fronte": 1002,
      "capo": 1003,
      "osc": 1004,
      "oh": 1005,
      "valor": 1006,
      "##mpio": 1007,
      "##fo": 1008,
      "crede": 1009,
      "venne": 1010,
      "grave": 1011,
      "molti": 1012,
      "##uta": 1013,
      "##zze": 1014,
      "prop": 1015,
      "pare": 1016,
      "corpo": 1017,
      "arte": 1018,
      "##ger": 1019,
      "servi": 1020,
      "##llo": 1021,
      "##condo": 1022,
      "##fe": 1023,
      "gua": 1024,
      "nella": 1025,
      "mes": 1026,
      "##tore": 1027,
      "at": 1028,
      "ebbe": 1029,
      "comp": 1030,
      "volta": 1031,
      "##cchia": 1032,
      "sce": 1033,
      "figlio": 1034,
      "lib": 1035,
      "##bbi": 1036,
      "han": 1037,
      "monte": 1038,
      "bb": 1039,
      "ex": 1040,
      "caro": 1041,
      "cura": 1042,
      "dov": 1043,
      "lar": 1044,
      "##gar": 1045,
      "rinaldo": 1046,
      "tanti": 1047,
      "dom": 1048,
      "umi": 1049,
      "lin": 1050,
      "onor": 1051,
      "cont": 1052,
      "destri": 1053,
      "##bito": 1054,
      "dico": 1055,
      "##sca": 1056,
      "soa": 1057,
      "vivo": 1058,
      "sto": 1059,
      "anima": 1060,
      "spada": 1061,
      "res": 1062,
      "##uno": 1063,
      "omai": 1064,
      "vista": 1065,
      "##cendo": 1066,
      "sorte": 1067,
      "trova": 1068,
      "ov": 1069,
      "danno": 1070,
      "ombra": 1071,
      "tante": 1072,
      "mani": 1073,
      "velo": 1074,
      "##cche": 1075,
      "dire": 1076,
      "ritor": 1077,
      "porto": 1078,
      "and": 1079,
      "vic": 1080,
      "certo": 1081,
      "alt": 1082,
      "stesso": 1083,
      "possa": 1084,
      "sch": 1085,
      "##mme": 1086,
      "##sente": 1087,
      "donne": 1088,
      "nulla": 1089,
      "gh": 1090,
      "felice": 1091,
      "##um": 1092,
      "vera": 1093,
      "inten": 1094,
      "##mbi": 1095,
      "lieto": 1096,
      "ins": 1097,
      "delle": 1098,
      "consi": 1099,
      "fiori": 1100,
      "tar": 1101,
      "##lio": 1102,
      "tue": 1103,
      "giov": 1104,
      "##tando": 1105,
      "star": 1106,
      "##duto": 1107,
      "tene": 1108,
      "fru": 1109,
      "torn": 1110,
      "male": 1111,
      "batta": 1112,
      "pens": 1113,
      "van": 1114,
      "viva": 1115,
      "dopo": 1116,
      "##chio": 1117,
      "##tade": 1118,
      "##mer": 1119,
      "conf": 1120,
      "inge": 1121,
      "sar": 1122,
      "##oco": 1123,
      "##lti": 1124,
      "##tano": 1125,
      "##is": 1126,
      "##tur": 1127,
      "bea": 1128,
      "nostra": 1129,
      "modo": 1130,
      "dor": 1131,
      "##ros": 1132,
      "detto": 1133,
      "##rato": 1134,
      "ore": 1135,
      "sca": 1136,
      "##dri": 1137,
      "##tato": 1138,
      "mare": 1139,
      "oggi": 1140,
      "##ele": 1141,
      "stelle": 1142,
      "degno": 1143,
      "lasso": 1144,
      "ass": 1145,
      "##ali": 1146,
      "err": 1147,
      "##scio": 1148,
      "##bile": 1149,
      "fama": 1150,
      "torna": 1151,
      "##mante": 1152,
      "alti": 1153,
      "vedi": 1154,
      "confor": 1155,
      "impre": 1156,
      "passo": 1157,
      "pria": 1158,
      "hon": 1159,
      "voler": 1160,
      "ab": 1161,
      "peri": 1162,
      "dolci": 1163,
      "dif": 1164,
      "##pose": 1165,
      "##dere": 1166,
      "ele": 1167,
      "cum": 1168,
      "ahi": 1169,
      "sera": 1170,
      "##mpa": 1171,
      "vidi": 1172,
      "...": 1173,
      "bos": 1174,
      "conos": 1175,
      "nemi": 1176,
      "pala": 1177,
      "var": 1178,
      "quest": 1179,
      "qualche": 1180,
      "vostra": 1181,
      "##zzi": 1182,
      "##rio": 1183,
      "scudo": 1184,
      "lungo": 1185,
      "aper": 1186,
      "##eni": 1187,
      "hanno": 1188,
      "##gre": 1189,
      "madre": 1190,
      "##gendo": 1191,
      "segno": 1192,
      "nov": 1193,
      "alber": 1194,
      "min": 1195,
      "ucci": 1196,
      "dietro": 1197,
      "apri": 1198,
      "andar": 1199,
      "guerri": 1200,
      "##orni": 1201,
      "pers": 1202,
      "merce": 1203,
      "chiama": 1204,
      "nell": 1205,
      "veggio": 1206,
      "##ute": 1207,
      "fine": 1208,
      "aria": 1209,
      "##cri": 1210,
      "spo": 1211,
      "punto": 1212,
      "presto": 1213,
      "od": 1214,
      "ruggier": 1215,
      "bian": 1216,
      "speranza": 1217,
      "eterno": 1218,
      "convien": 1219,
      "##din": 1220,
      "ritro": 1221,
      "##nanzi": 1222,
      "desio": 1223,
      "##omb": 1224,
      "cost": 1225,
      "##dea": 1226,
      "anco": 1227,
      "##ccor": 1228,
      "fero": 1229,
      "fav": 1230,
      "presso": 1231,
      "##pin": 1232,
      "luci": 1233,
      "degli": 1234,
      "battaglia": 1235,
      "##petto": 1236,
      "##arsi": 1237,
      "verde": 1238,
      "sin": 1239,
      "##rei": 1240,
      "bre": 1241,
      "uman": 1242,
      "capi": 1243,
      "dura": 1244,
      "parlar": 1245,
      "prese": 1246,
      "diletto": 1247,
      "anda": 1248,
      "mortal": 1249,
      "##tei": 1250,
      "perch": 1251,
      "mena": 1252,
      "biso": 1253,
      "simi": 1254,
      "abbia": 1255,
      "onore": 1256,
      "ob": 1257,
      "##cre": 1258,
      "fati": 1259,
      "sdegno": 1260,
      "bon": 1261,
      "pas": 1262,
      "uni": 1263,
      "incon": 1264,
      "guarda": 1265,
      "colui": 1266,
      "##anna": 1267,
      "##onda": 1268,
      "quale": 1269,
      "leggia": 1270,
      "ognun": 1271,
      "infer": 1272,
      "vie": 1273,
      "ferro": 1274,
      "alte": 1275,
      "meco": 1276,
      "rivol": 1277,
      "##dendo": 1278,
      "inse": 1279,
      "acqua": 1280,
      "passi": 1281,
      "##des": 1282,
      "resta": 1283,
      "##ppa": 1284,
      "venti": 1285,
      "morir": 1286,
      "entro": 1287,
      "vago": 1288,
      "acque": 1289,
      "inte": 1290,
      "omb": 1291,
      "soff": 1292,
      "forma": 1293,
      "stran": 1294,
      "##lus": 1295,
      "pensa": 1296,
      "frat": 1297,
      "##stro": 1298,
      "nasc": 1299,
      "bello": 1300,
      "ap": 1301,
      "ognor": 1302,
      "fiume": 1303,
      "##anda": 1304,
      "nol": 1305,
      "##min": 1306,
      "duol": 1307,
      "santo": 1308,
      "rime": 1309,
      "signore": 1310,
      "##via": 1311,
      "corso": 1312,
      "colpo": 1313,
      "anchor": 1314,
      "comin": 1315,
      "terren": 1316,
      "sanza": 1317,
      "ulti": 1318,
      "##tria": 1319,
      "quanti": 1320,
      "pien": 1321,
      "spirto": 1322,
      "condu": 1323,
      "##ppi": 1324,
      "grazia": 1325,
      "figliu": 1326,
      "testa": 1327,
      "doglia": 1328,
      "sai": 1329,
      "##ondo": 1330,
      "costei": 1331,
      "##osse": 1332,
      "vegg": 1333,
      "##ent": 1334,
      "armi": 1335,
      "posso": 1336,
      "us": 1337,
      "benche": 1338,
      "agli": 1339,
      "ingegno": 1340,
      "sembi": 1341,
      "eff": 1342,
      "ivi": 1343,
      "divi": 1344,
      "suon": 1345,
      "pag": 1346,
      "##ane": 1347,
      "duro": 1348,
      "giove": 1349,
      "##vano": 1350,
      "pel": 1351,
      "lagri": 1352,
      "manda": 1353,
      "fonte": 1354,
      "racc": 1355,
      "nostri": 1356,
      "duo": 1357,
      "dolore": 1358,
      "quindi": 1359,
      "##uti": 1360,
      "pari": 1361,
      "prof": 1362,
      "turba": 1363,
      "vergo": 1364,
      "##olto": 1365,
      "usa": 1366,
      "caccia": 1367,
      "fiamma": 1368,
      "oltra": 1369,
      "##pro": 1370,
      "corre": 1371,
      "piacer": 1372,
      "fui": 1373,
      "vesti": 1374,
      "tron": 1375,
      "quant": 1376,
      "piace": 1377,
      "##eto": 1378,
      "stella": 1379,
      "cie": 1380,
      "##verso": 1381,
      "stre": 1382,
      "volse": 1383,
      "cagion": 1384,
      "splend": 1385,
      "ecc": 1386,
      "pass": 1387,
      "sente": 1388,
      "bri": 1389,
      "arg": 1390,
      "##gliar": 1391,
      "##ossi": 1392,
      "voglio": 1393,
      "cqu": 1394,
      "marti": 1395,
      "stan": 1396,
      "##cato": 1397,
      "sento": 1398,
      "para": 1399,
      "acer": 1400,
      "disio": 1401,
      "piede": 1402,
      "gentile": 1403,
      "appar": 1404,
      "nuovo": 1405,
      "dia": 1406,
      "migli": 1407,
      "onora": 1408,
      "liber": 1409,
      "##sco": 1410,
      "##usti": 1411,
      "lancia": 1412,
      "##ito": 1413,
      "viver": 1414,
      "meno": 1415,
      "##guar": 1416,
      "##cando": 1417,
      "inter": 1418,
      "opp": 1419,
      "prova": 1420,
      "rispose": 1421,
      "allora": 1422,
      "##sia": 1423,
      "he": 1424,
      "##mbo": 1425,
      "acqui": 1426,
      "nom": 1427,
      "venir": 1428,
      "opra": 1429,
      "##por": 1430,
      "ren": 1431,
      "quand": 1432,
      "##olta": 1433,
      "##ato": 1434,
      "bei": 1435,
      "giorni": 1436,
      "donz": 1437,
      "spin": 1438,
      "cavali": 1439,
      "##ioso": 1440,
      "contento": 1441,
      "fanno": 1442,
      "tradi": 1443,
      "avi": 1444,
      "pene": 1445,
      "\".": 1446,
      "prin": 1447,
      "belta": 1448,
      "##osta": 1449,
      "##ruo": 1450,
      "credo": 1451,
      "valore": 1452,
      "dicea": 1453,
      "ari": 1454,
      "tant": 1455,
      "quante": 1456,
      "arri": 1457,
      "primi": 1458,
      "subito": 1459,
      "rio": 1460,
      "spie": 1461,
      "lieta": 1462,
      "##par": 1463,
      "teco": 1464,
      "selva": 1465,
      "meglio": 1466,
      "amante": 1467,
      "##tio": 1468,
      "cavallier": 1469,
      "##gon": 1470,
      "##tol": 1471,
      "##cere": 1472,
      "appresso": 1473,
      "trovar": 1474,
      "speme": 1475,
      "om": 1476,
      "costui": 1477,
      "##alle": 1478,
      "##it": 1479,
      "lingua": 1480,
      "cari": 1481,
      "amico": 1482,
      "##tori": 1483,
      "sovra": 1484,
      "pol": 1485,
      "haver": 1486,
      "vole": 1487,
      "bocca": 1488,
      "rima": 1489,
      "scon": 1490,
      "##col": 1491,
      "princi": 1492,
      "##detta": 1493,
      "tale": 1494,
      "ardente": 1495,
      "pensiero": 1496,
      "##vera": 1497,
      "vive": 1498,
      "anno": 1499,
      "fred": 1500,
      "vil": 1501,
      "tolto": 1502,
      "##enta": 1503,
      "lato": 1504,
      "dicendo": 1505,
      "##rendo": 1506,
      "##cente": 1507,
      "prende": 1508,
      "seno": 1509,
      "pron": 1510,
      "##ttar": 1511,
      "fuoco": 1512,
      "tien": 1513,
      "##mmi": 1514,
      "veni": 1515,
      "destrier": 1516,
      "pop": 1517,
      "##cura": 1518,
      "##mm": 1519,
      "##gro": 1520,
      "eta": 1521,
      "tes": 1522,
      "##dor": 1523,
      "dato": 1524,
      "preso": 1525,
      "##ppia": 1526,
      "pieto": 1527,
      "periglio": 1528,
      "lav": 1529,
      "trovo": 1530,
      "##ttro": 1531,
      "##ha": 1532,
      "##monte": 1533,
      "gal": 1534,
      "ign": 1535,
      "soccor": 1536,
      "roma": 1537,
      "legno": 1538,
      "scher": 1539,
      "aura": 1540,
      "fusse": 1541,
      "fren": 1542,
      "perc": 1543,
      "vecchio": 1544,
      "sare": 1545,
      "##tino": 1546,
      "##stra": 1547,
      "##chia": 1548,
      "##dando": 1549,
      "fara": 1550,
      "id": 1551,
      "mostro": 1552,
      "affli": 1553,
      "angeli": 1554,
      "nar": 1555,
      "##dente": 1556,
      "chiara": 1557,
      "porte": 1558,
      "##tru": 1559,
      "##ppe": 1560,
      "dall": 1561,
      "ero": 1562,
      "raggi": 1563,
      "alqu": 1564,
      "uscir": 1565,
      "poss": 1566,
      "campi": 1567,
      "ricor": 1568,
      "beni": 1569,
      "consiglio": 1570,
      "soave": 1571,
      "navi": 1572,
      "trar": 1573,
      "secondo": 1574,
      "##viglia": 1575,
      "tran": 1576,
      "lega": 1577,
      "scio": 1578,
      "gioia": 1579,
      "cento": 1580,
      "talor": 1581,
      "##gine": 1582,
      "strin": 1583,
      "fanci": 1584,
      "alf": 1585,
      "piano": 1586,
      "sarac": 1587,
      "colle": 1588,
      "sete": 1589,
      "poscia": 1590,
      "lunga": 1591,
      "fiero": 1592,
      "riman": 1593,
      "eo": 1594,
      "caso": 1595,
      "ah": 1596,
      "cortese": 1597,
      "ur": 1598,
      "ir": 1599,
      "esso": 1600,
      "##zione": 1601,
      "breve": 1602,
      "fai": 1603,
      "costu": 1604,
      "cha": 1605,
      "degna": 1606,
      "pla": 1607,
      "##tamente": 1608,
      "stri": 1609,
      "intanto": 1610,
      "ale": 1611,
      "parea": 1612,
      "##mando": 1613,
      "viene": 1614,
      "tratto": 1615,
      "alcuna": 1616,
      "leva": 1617,
      "empi": 1618,
      "##mano": 1619,
      "aspetto": 1620,
      "ini": 1621,
      "monti": 1622,
      "parla": 1623,
      "cara": 1624,
      "braccio": 1625,
      "poter": 1626,
      "morti": 1627,
      "molte": 1628,
      "op": 1629,
      "cen": 1630,
      "ori": 1631,
      "quer": 1632,
      "mara": 1633,
      "##donna": 1634,
      "##gante": 1635,
      "bellezza": 1636,
      "apre": 1637,
      "cerca": 1638,
      "mura": 1639,
      "diff": 1640,
      "##gor": 1641,
      "aggi": 1642,
      "##talia": 1643,
      "luo": 1644,
      "##gin": 1645,
      "orri": 1646,
      "entra": 1647,
      "vittor": 1648,
      "sonno": 1649,
      "aspetta": 1650,
      "pieno": 1651,
      "dalla": 1652,
      "aure": 1653,
      "##eta": 1654,
      "emp": 1655,
      "occhio": 1656,
      "##guardo": 1657,
      "celeste": 1658,
      "onda": 1659,
      "bianco": 1660,
      "color": 1661,
      "braccia": 1662,
      "nobil": 1663,
      "puoi": 1664,
      "adorno": 1665,
      "##rebbe": 1666,
      "collo": 1667,
      "lus": 1668,
      "manco": 1669,
      "anim": 1670,
      "orna": 1671,
      "ando": 1672,
      "infini": 1673,
      "vostri": 1674,
      "eterna": 1675,
      "muo": 1676,
      "ara": 1677,
      "prie": 1678,
      "aiuto": 1679,
      "##dra": 1680,
      "segu": 1681,
      "illus": 1682,
      "alquanto": 1683,
      "nimi": 1684,
      "facea": 1685,
      "basso": 1686,
      "##ssimo": 1687,
      "dea": 1688,
      "potea": 1689,
      "estre": 1690,
      "fuggir": 1691,
      "diede": 1692,
      "lontano": 1693,
      "arb": 1694,
      "##usa": 1695,
      "rive": 1696,
      "grido": 1697,
      "albergo": 1698,
      "spera": 1699,
      "novo": 1700,
      "cristi": 1701,
      "sae": 1702,
      "pes": 1703,
      "##ton": 1704,
      "accio": 1705,
      "madonna": 1706,
      "arco": 1707,
      "mina": 1708,
      "italia": 1709,
      "##essa": 1710,
      "rende": 1711,
      "##enda": 1712,
      "bru": 1713,
      "morire": 1714,
      "##mmo": 1715,
      "##tter": 1716,
      "luna": 1717,
      "pr": 1718,
      "gen": 1719,
      "vergogna": 1720,
      "serra": 1721,
      "immor": 1722,
      "sommo": 1723,
      "##zie": 1724,
      "paura": 1725,
      "aug": 1726,
      "viv": 1727,
      "pecca": 1728,
      "fera": 1729,
      "lassa": 1730,
      "##uri": 1731,
      "letto": 1732,
      "##hor": 1733,
      "sil": 1734,
      "atto": 1735,
      "raggio": 1736,
      "##mina": 1737,
      "ali": 1738,
      "vano": 1739,
      "saggio": 1740,
      "##ttu": 1741,
      "sie": 1742,
      "abba": 1743,
      "sape": 1744,
      "fac": 1745,
      "sap": 1746,
      "cr": 1747,
      "cavallo": 1748,
      "miglior": 1749,
      "opre": 1750,
      "mezo": 1751,
      "gir": 1752,
      "ado": 1753,
      "##tana": 1754,
      "lascio": 1755,
      "br": 1756,
      "puote": 1757,
      "fugge": 1758,
      "proprio": 1759,
      "antico": 1760,
      "atten": 1761,
      "##mora": 1762,
      "je": 1763,
      "sicu": 1764,
      "dan": 1765,
      "ness": 1766,
      "soli": 1767,
      "persona": 1768,
      "inanzi": 1769,
      "guisa": 1770,
      "innanzi": 1771,
      "vaga": 1772,
      "posto": 1773,
      "caldo": 1774,
      "huom": 1775,
      "figlia": 1776,
      "##trice": 1777,
      "sasso": 1778,
      "memor": 1779,
      "manca": 1780,
      "nin": 1781,
      "dimos": 1782,
      "sse": 1783,
      "##ie": 1784,
      "comba": 1785,
      "membra": 1786,
      "vaghe": 1787,
      "colei": 1788,
      "ragione": 1789,
      "mala": 1790,
      "riso": 1791,
      "duca": 1792,
      "stava": 1793,
      "piena": 1794,
      "cir": 1795,
      "casa": 1796,
      "##dita": 1797,
      "have": 1798,
      "resto": 1799,
      "vanno": 1800,
      "vari": 1801,
      "soggi": 1802,
      "amar": 1803,
      "impresa": 1804,
      "cro": 1805,
      "empio": 1806,
      "stru": 1807,
      "strada": 1808,
      "##ranno": 1809,
      "ritorno": 1810,
      "assi": 1811,
      "fiamme": 1812,
      "legge": 1813,
      "elmo": 1814,
      "alme": 1815,
      "ador": 1816,
      "abi": 1817,
      "##ggiar": 1818,
      "vendetta": 1819,
      "impe": 1820,
      "rose": 1821,
      "donzella": 1822,
      "bran": 1823,
      "##ude": 1824,
      "lumi": 1825,
      "gover": 1826,
      "leggi": 1827,
      "compagn": 1828,
      "sacro": 1829,
      "fatta": 1830,
      "potre": 1831,
      "torto": 1832,
      "fianco": 1833,
      "##pio": 1834,
      "fam": 1835,
      "ferma": 1836,
      "teme": 1837,
      "seguir": 1838,
      "##more": 1839,
      "amici": 1840,
      "sospiri": 1841,
      "##nar": 1842,
      "pregio": 1843,
      "quelli": 1844,
      "pose": 1845,
      "##gr": 1846,
      "cast": 1847,
      "##dro": 1848,
      "tolse": 1849,
      "desi": 1850,
      "##cciar": 1851,
      "ss": 1852,
      "sf": 1853,
      "candi": 1854,
      "lasciar": 1855,
      "fini": 1856,
      "tras": 1857,
      "oscura": 1858,
      "affanni": 1859,
      "cc": 1860,
      "frutto": 1861,
      "oltre": 1862,
      "versi": 1863,
      "esse": 1864,
      "pure": 1865,
      "ess": 1866,
      "memoria": 1867,
      "gar": 1868,
      "##detto": 1869,
      "##dono": 1870,
      "spero": 1871,
      "sfor": 1872,
      "##bre": 1873,
      "conten": 1874,
      "cad": 1875,
      "mme": 1876,
      "ber": 1877,
      "##dino": 1878,
      "giovine": 1879,
      "corona": 1880,
      "erbe": 1881,
      "begli": 1882,
      "##ho": 1883,
      "fugg": 1884,
      "vel": 1885,
      "##tale": 1886,
      "sian": 1887,
      "crudo": 1888,
      "pom": 1889,
      "##iosa": 1890,
      "agg": 1891,
      "medes": 1892,
      "##usta": 1893,
      "marte": 1894,
      "bia": 1895,
      "duce": 1896,
      "assal": 1897,
      "##vero": 1898,
      "suol": 1899,
      "brama": 1900,
      "##dus": 1901,
      "furor": 1902,
      "paese": 1903,
      "aspra": 1904,
      "',": 1905,
      "indu": 1906,
      "odio": 1907,
      "salute": 1908,
      "conforto": 1909,
      "cieco": 1910,
      "riva": 1911,
      "piedi": 1912,
      "vinto": 1913,
      "pot": 1914,
      "saper": 1915,
      "##conda": 1916,
      "chie": 1917,
      "santa": 1918,
      "umil": 1919,
      "##ossa": 1920,
      "vuole": 1921,
      "francia": 1922,
      "dono": 1923,
      "mali": 1924,
      "##lli": 1925,
      "guida": 1926,
      "fora": 1927,
      "torre": 1928,
      "lal": 1929,
      "picci": 1930,
      "guardo": 1931,
      "##endi": 1932,
      "fatti": 1933,
      "senno": 1934,
      "##cchie": 1935,
      "tristo": 1936,
      "bosco": 1937,
      "##mu": 1938,
      "prego": 1939,
      "alz": 1940,
      "effetto": 1941,
      "vedere": 1942,
      "ombre": 1943,
      "ima": 1944,
      "hora": 1945,
      "ingi": 1946,
      "alza": 1947,
      "invidia": 1948,
      "sovente": 1949,
      "##dine": 1950,
      "vile": 1951,
      "##tene": 1952,
      "diver": 1953,
      "dav": 1954,
      "guerrier": 1955,
      "conc": 1956,
      "sus": 1957,
      "giunto": 1958,
      "vermi": 1959,
      "lontan": 1960,
      "pastor": 1961,
      "dolente": 1962,
      "conce": 1963,
      "atti": 1964,
      "colpi": 1965,
      "est": 1966,
      "grida": 1967,
      "pra": 1968,
      "fedel": 1969,
      "misero": 1970,
      "volo": 1971,
      "antica": 1972,
      "schiera": 1973,
      "aqui": 1974,
      "dissi": 1975,
      "af": 1976,
      "parve": 1977,
      "rep": 1978,
      "##star": 1979,
      "dolcezza": 1980,
      "piange": 1981,
      "animo": 1982,
      "essa": 1983,
      "giudi": 1984,
      "virtute": 1985,
      "compagnia": 1986,
      "cap": 1987,
      "appare": 1988,
      "novella": 1989,
      "campa": 1990,
      "##erai": 1991,
      "scal": 1992,
      "essi": 1993,
      "##cce": 1994,
      "servo": 1995,
      "lunge": 1996,
      "cche": 1997,
      "giace": 1998,
      "##tanto": 1999,
      "##dir": 2000,
      "avesse": 2001,
      "##cta": 2002,
      "sub": 2003,
      "anche": 2004,
      "##giun": 2005,
      "uli": 2006,
      "##zion": 2007,
      "mosse": 2008,
      "##ure": 2009,
      "destra": 2010,
      "erano": 2011,
      "oli": 2012,
      "puro": 2013,
      "gravi": 2014,
      "vada": 2015,
      "affanno": 2016,
      "abbi": 2017,
      "##....": 2018,
      "trasse": 2019,
      "hom": 2020,
      "##lia": 2021,
      "valle": 2022,
      "spiri": 2023,
      "consu": 2024,
      "belli": 2025,
      "##vento": 2026,
      "asse": 2027,
      "astol": 2028,
      "mostrar": 2029,
      "##gura": 2030,
      "desir": 2031,
      "brando": 2032,
      "##orte": 2033,
      "paradi": 2034,
      "astolfo": 2035,
      "##dito": 2036,
      "arde": 2037,
      "ppi": 2038,
      "za": 2039,
      "dise": 2040,
      "reg": 2041,
      "##ffa": 2042,
      "cade": 2043,
      "poiche": 2044,
      "figliuol": 2045,
      "error": 2046,
      "spron": 2047,
      "volge": 2048,
      "der": 2049,
      "vuoi": 2050,
      "##bro": 2051,
      "##tata": 2052,
      "avanti": 2053,
      "crudele": 2054,
      "dai": 2055,
      "inde": 2056,
      "altero": 2057,
      "gon": 2058,
      "giusto": 2059,
      "##bili": 2060,
      "nova": 2061,
      "fronde": 2062,
      "##dare": 2063,
      "vittoria": 2064,
      "##tina": 2065,
      "##cito": 2066,
      "fiore": 2067,
      "essen": 2068,
      "voglie": 2069,
      "mostri": 2070,
      "achi": 2071,
      "rice": 2072,
      "hebbe": 2073,
      "chiari": 2074,
      "##senti": 2075,
      "ll": 2076,
      "nn": 2077,
      "pp": 2078,
      "rapi": 2079,
      "sereno": 2080,
      "orgo": 2081,
      "camin": 2082,
      "mirar": 2083,
      "aspro": 2084,
      "cristo": 2085,
      "quar": 2086,
      "arre": 2087,
      "tranqui": 2088,
      "dama": 2089,
      "piangendo": 2090,
      "chiome": 2091,
      "baron": 2092,
      "piglia": 2093,
      "##gnar": 2094,
      "truo": 2095,
      "ricco": 2096,
      "ful": 2097,
      "dona": 2098,
      "##ario": 2099,
      "preda": 2100,
      "ria": 2101,
      "spre": 2102,
      "luogo": 2103,
      "dra": 2104,
      "occ": 2105,
      "cuor": 2106,
      "sb": 2107,
      "##terno": 2108,
      "tin": 2109,
      "os": 2110,
      "santi": 2111,
      "##zon": 2112,
      "invol": 2113,
      "canti": 2114,
      "sguardo": 2115,
      "##omba": 2116,
      "almen": 2117,
      "timor": 2118,
      "amoroso": 2119,
      "partir": 2120,
      "lacri": 2121,
      "cader": 2122,
      "##dato": 2123,
      "messo": 2124,
      "spalle": 2125,
      "fate": 2126,
      "amanti": 2127,
      "move": 2128,
      "dritto": 2129,
      "quanta": 2130,
      "carte": 2131,
      "oi": 2132,
      "perde": 2133,
      "gion": 2134,
      "potra": 2135,
      "pianta": 2136,
      "##vere": 2137,
      "vill": 2138,
      "##erato": 2139,
      "dubb": 2140,
      "convi": 2141,
      "paradiso": 2142,
      "immen": 2143,
      "allo": 2144,
      "giova": 2145,
      "beato": 2146,
      "##ande": 2147,
      "miser": 2148,
      "vale": 2149,
      "iddio": 2150,
      "festa": 2151,
      "##ita": 2152,
      "mercede": 2153,
      "molta": 2154,
      "saria": 2155,
      "presente": 2156,
      "##toro": 2157,
      "patria": 2158,
      "##dan": 2159,
      "fondo": 2160,
      "ritorna": 2161,
      "fuga": 2162,
      "sospir": 2163,
      "##ens": 2164,
      "##olse": 2165,
      "##elletto": 2166,
      "fermo": 2167,
      "ffa": 2168,
      "prove": 2169,
      "quinci": 2170,
      "nemico": 2171,
      "rai": 2172,
      "troi": 2173,
      "superbo": 2174,
      "spirti": 2175,
      "infelice": 2176,
      "diven": 2177,
      "nave": 2178,
      "armato": 2179,
      "##ombra": 2180,
      "diro": 2181,
      "presa": 2182,
      "nacque": 2183,
      "buona": 2184,
      "sacri": 2185,
      "mette": 2186,
      "tormento": 2187,
      "fatica": 2188,
      "sepol": 2189,
      "nuova": 2190,
      "##cho": 2191,
      "arti": 2192,
      "marsi": 2193,
      "misera": 2194,
      "tempesta": 2195,
      "piante": 2196,
      "tocca": 2197,
      "ger": 2198,
      "fallo": 2199,
      "alfin": 2200,
      "moglie": 2201,
      "tener": 2202,
      "errore": 2203,
      "portar": 2204,
      "##udi": 2205,
      "##andi": 2206,
      "stor": 2207,
      "prom": 2208,
      "libro": 2209,
      "fato": 2210,
      "##ffi": 2211,
      "possente": 2212,
      "pianti": 2213,
      "##une": 2214,
      "venia": 2215,
      "falla": 2216,
      "uomo": 2217,
      "orgoglio": 2218,
      "dui": 2219,
      "tos": 2220,
      "faro": 2221,
      "stessa": 2222,
      "freddo": 2223,
      "vivi": 2224,
      "spoglia": 2225,
      "coll": 2226,
      "bisogna": 2227,
      "nelle": 2228,
      "popol": 2229,
      "voci": 2230,
      "##gato": 2231,
      "##tenza": 2232,
      "vola": 2233,
      "canta": 2234,
      "apol": 2235,
      "##etti": 2236,
      "porti": 2237,
      "fretta": 2238,
      "diman": 2239,
      "quattro": 2240,
      "##he": 2241,
      "vertu": 2242,
      "##giar": 2243,
      "quai": 2244,
      "cavalier": 2245,
      "pugna": 2246,
      "venuto": 2247,
      "venire": 2248,
      "soccorso": 2249,
      "##sche": 2250,
      "contro": 2251,
      "pura": 2252,
      "pochi": 2253,
      "##elici": 2254,
      "##jja": 2255,
      "suole": 2256,
      "comm": 2257,
      "##can": 2258,
      "odi": 2259,
      "dare": 2260,
      "pin": 2261,
      "##erto": 2262,
      "##tis": 2263,
      "picc": 2264,
      "giovan": 2265,
      "altera": 2266,
      "ricche": 2267,
      "##tus": 2268,
      "vorrei": 2269,
      "meri": 2270,
      "accese": 2271,
      "##vare": 2272,
      "##ender": 2273,
      "amo": 2274,
      "corno": 2275,
      "carne": 2276,
      "gel": 2277,
      "grand": 2278,
      "bell": 2279,
      "##usi": 2280,
      "impera": 2281,
      "att": 2282,
      "amaro": 2283,
      "penso": 2284,
      "habbia": 2285,
      "danni": 2286,
      "##mine": 2287,
      "camp": 2288,
      "colpa": 2289,
      "vicino": 2290,
      "agra": 2291,
      "ze": 2292,
      "##dice": 2293,
      "##ssima": 2294,
      "prato": 2295,
      "debb": 2296,
      "colli": 2297,
      "carro": 2298,
      "crin": 2299,
      "##bus": 2300,
      "tornar": 2301,
      "visto": 2302,
      "tema": 2303,
      "##duta": 2304,
      "##darno": 2305,
      "suono": 2306,
      "##rano": 2307,
      "messa": 2308,
      "cred": 2309,
      "maraviglia": 2310,
      "),": 2311,
      "dipin": 2312,
      "tira": 2313,
      "udir": 2314,
      "mei": 2315,
      "mori": 2316,
      "splendor": 2317,
      "empia": 2318,
      "pere": 2319,
      "erba": 2320,
      "molle": 2321,
      "insegna": 2322,
      "avanza": 2323,
      "ttu": 2324,
      "rami": 2325,
      "ultimo": 2326,
      "dica": 2327,
      "pelle": 2328,
      "scar": 2329,
      "##perto": 2330,
      "lieti": 2331,
      "dalle": 2332,
      "aveva": 2333,
      "##bri": 2334,
      "acco": 2335,
      "torno": 2336,
      "##tenne": 2337,
      "arci": 2338,
      "corr": 2339,
      "altrove": 2340,
      "terre": 2341,
      "ponte": 2342,
      "lagrime": 2343,
      "spia": 2344,
      "langui": 2345,
      "##ggn": 2346,
      "##ote": 2347,
      "##uso": 2348,
      "##care": 2349,
      "##unt": 2350,
      "acceso": 2351,
      "vul": 2352,
      "ruggiero": 2353,
      "ddi": 2354,
      "##lar": 2355,
      "mortale": 2356,
      "tutt": 2357,
      "esca": 2358,
      "piacque": 2359,
      "##ati": 2360,
      "esc": 2361,
      "disce": 2362,
      "cantar": 2363,
      "uso": 2364,
      "fiera": 2365,
      "tempi": 2366,
      "folle": 2367,
      "giusti": 2368,
      "cuore": 2369,
      "imper": 2370,
      "##orta": 2371,
      "stanco": 2372,
      "##mbe": 2373,
      "papa": 2374,
      "fiumi": 2375,
      "veloce": 2376,
      "freno": 2377,
      "manto": 2378,
      "disi": 2379,
      "riposo": 2380,
      "adi": 2381,
      "volea": 2382,
      "avete": 2383,
      "##eti": 2384,
      "aita": 2385,
      "chiare": 2386,
      "pensieri": 2387,
      "vinci": 2388,
      "bianca": 2389,
      "ner": 2390,
      "omo": 2391,
      "##ggna": 2392,
      "veduto": 2393,
      "lungi": 2394,
      "franco": 2395,
      "her": 2396,
      "como": 2397,
      "dist": 2398,
      "sassi": 2399,
      "guai": 2400,
      "coi": 2401,
      "mera": 2402,
      "tempio": 2403,
      "sembiante": 2404,
      "##vio": 2405,
      "inch": 2406,
      "priva": 2407,
      "##stri": 2408,
      "verno": 2409,
      "neve": 2410,
      "pru": 2411,
      "barb": 2412,
      "divina": 2413,
      "eccel": 2414,
      "##etro": 2415,
      "chiede": 2416,
      "lito": 2417,
      "nato": 2418,
      "infia": 2419,
      "discor": 2420,
      "gira": 2421,
      "sg": 2422,
      "sposa": 2423,
      "abbra": 2424,
      "fil": 2425,
      "conven": 2426,
      "marito": 2427,
      "nido": 2428,
      "ardito": 2429,
      "essendo": 2430,
      "squa": 2431,
      "fido": 2432,
      "mortali": 2433,
      "parlo": 2434,
      "estin": 2435,
      "##cina": 2436,
      "segue": 2437,
      "cercando": 2438,
      "gro": 2439,
      "prome": 2440,
      "trista": 2441,
      "divino": 2442,
      "##bra": 2443,
      "##su": 2444,
      "##eu": 2445,
      "##estra": 2446,
      "tenne": 2447,
      "inferno": 2448,
      "vid": 2449,
      "vedea": 2450,
      "divin": 2451,
      "##gente": 2452,
      "posa": 2453,
      "nove": 2454,
      "cur": 2455,
      "##pia": 2456,
      "stanno": 2457,
      "furore": 2458,
      "simil": 2459,
      "nessun": 2460,
      "aere": 2461,
      "##ollo": 2462,
      "cortesia": 2463,
      "mesti": 2464,
      "##mba": 2465,
      "auda": 2466,
      "trion": 2467,
      "ardore": 2468,
      "indarno": 2469,
      "riguar": 2470,
      "preghi": 2471,
      "alcuno": 2472,
      "andare": 2473,
      "##unto": 2474,
      "ode": 2475,
      "avvi": 2476,
      "gioco": 2477,
      "feroce": 2478,
      "monta": 2479,
      "cresce": 2480,
      "aur": 2481,
      "diss": 2482,
      "grazie": 2483,
      "aven": 2484,
      "conver": 2485,
      "ann": 2486,
      "penne": 2487,
      "umana": 2488,
      "avean": 2489,
      "medesmo": 2490,
      "##vvi": 2491,
      "faci": 2492,
      "essere": 2493,
      "note": 2494,
      "prigion": 2495,
      "vostre": 2496,
      "pianger": 2497,
      "pagan": 2498,
      "zu": 2499,
      "##ose": 2500,
      "verdi": 2501,
      "ggi": 2502,
      "duolo": 2503,
      "ghia": 2504,
      "stare": 2505,
      "accende": 2506,
      "cantando": 2507,
      "amato": 2508,
      "apollo": 2509,
      "deli": 2510,
      "##centi": 2511,
      "asta": 2512,
      "avendo": 2513,
      "giunse": 2514,
      "##jjo": 2515,
      "oscuro": 2516,
      "##anze": 2517,
      "inna": 2518,
      "adunque": 2519,
      "amorosa": 2520,
      "basta": 2521,
      "sicuro": 2522,
      "tiene": 2523,
      "nostre": 2524,
      "fier": 2525,
      "grato": 2526,
      "intende": 2527,
      "brandi": 2528,
      "stile": 2529,
      "mom": 2530,
      "##br": 2531,
      "ces": 2532,
      "condo": 2533,
      "medi": 2534,
      "peso": 2535,
      "buono": 2536,
      "ff": 2537,
      "preme": 2538,
      "acci": 2539,
      "creder": 2540,
      "##mato": 2541,
      "acerba": 2542,
      "liberta": 2543,
      "##mia": 2544,
      "impero": 2545,
      "guardi": 2546,
      "ciascuno": 2547,
      "umile": 2548,
      "dubbio": 2549,
      "fl": 2550,
      "boschi": 2551,
      "fanciul": 2552,
      "ricon": 2553,
      "doglio": 2554,
      "ardenti": 2555,
      "sella": 2556,
      "tardo": 2557,
      "veste": 2558,
      "##son": 2559,
      "cima": 2560,
      "ppe": 2561,
      "nei": 2562,
      "vuo": 2563,
      "fratel": 2564,
      "aurora": 2565,
      "mirando": 2566,
      "pioggia": 2567,
      "aperto": 2568,
      "sfa": 2569,
      "##bia": 2570,
      "falso": 2571,
      "selve": 2572,
      "pone": 2573,
      "lev": 2574,
      "poca": 2575,
      "onesta": 2576,
      "falli": 2577,
      "fino": 2578,
      "##cro": 2579,
      "dinanzi": 2580,
      "deve": 2581,
      "ran": 2582,
      "##ompa": 2583,
      "dimora": 2584,
      "esce": 2585,
      "smar": 2586,
      "##ces": 2587,
      "achille": 2588,
      "forti": 2589,
      "##mio": 2590,
      "bisogno": 2591,
      "agramante": 2592,
      "contrar": 2593,
      "costume": 2594,
      "venga": 2595,
      "infa": 2596,
      "chel": 2597,
      "##oll": 2598,
      "gros": 2599,
      "##dano": 2600,
      "avere": 2601,
      "cotal": 2602,
      "grado": 2603,
      "palli": 2604,
      "ferir": 2605,
      "picciol": 2606,
      "nasce": 2607,
      "quali": 2608,
      "affetto": 2609,
      "merto": 2610,
      "ppiu": 2611,
      "ese": 2612,
      "##ua": 2613,
      "##lto": 2614,
      "toglie": 2615,
      "fere": 2616,
      "pan": 2617,
      "##ciar": 2618,
      "trava": 2619,
      "angelica": 2620,
      "presta": 2621,
      "farsi": 2622,
      "batte": 2623,
      "inganno": 2624,
      "##nal": 2625,
      "##dr": 2626,
      "asconde": 2627,
      "doni": 2628,
      "terzo": 2629,
      "##menta": 2630,
      "giamai": 2631,
      "donde": 2632,
      "dormi": 2633,
      "##sone": 2634,
      "##estro": 2635,
      "parer": 2636,
      "nero": 2637,
      "##cano": 2638,
      "lass": 2639,
      "sette": 2640,
      "##andona": 2641,
      "inganni": 2642,
      "oblio": 2643,
      "passar": 2644,
      "##omin": 2645,
      "##damante": 2646,
      "##toria": 2647,
      "##ggetto": 2648,
      "pietate": 2649,
      "principio": 2650,
      "prega": 2651,
      "senz": 2652,
      "anci": 2653,
      "vedo": 2654,
      "##gea": 2655,
      "piaga": 2656,
      "piacere": 2657,
      "cibo": 2658,
      "vedendo": 2659,
      "chiuso": 2660,
      "##cha": 2661,
      "sale": 2662,
      "scudi": 2663,
      "risponde": 2664,
      "ventura": 2665,
      "ardire": 2666,
      "##tali": 2667,
      "pietra": 2668,
      "minor": 2669,
      "##gando": 2670,
      "spento": 2671,
      "nodo": 2672,
      "intelletto": 2673,
      "are": 2674,
      "rimi": 2675,
      "figura": 2676,
      "bellezze": 2677,
      "egu": 2678,
      "vedrai": 2679,
      "ambe": 2680,
      "indo": 2681,
      "segn": 2682,
      "seme": 2683,
      "argento": 2684,
      "bor": 2685,
      "##ut": 2686,
      "vendi": 2687,
      "smarri": 2688,
      "##cti": 2689,
      "torni": 2690,
      "contemp": 2691,
      "restar": 2692,
      "ritrovar": 2693,
      "oime": 2694,
      "amica": 2695,
      "ascolta": 2696,
      "##vin": 2697,
      "dipar": 2698,
      "furo": 2699,
      "##mare": 2700,
      "mir": 2701,
      "superba": 2702,
      "fratello": 2703,
      "colla": 2704,
      "crea": 2705,
      "menti": 2706,
      "rub": 2707,
      "uomini": 2708,
      "simile": 2709,
      "incontra": 2710,
      "levar": 2711,
      "din": 2712,
      "honor": 2713,
      "spoglie": 2714,
      "pensando": 2715,
      "dee": 2716,
      "tardi": 2717,
      "croce": 2718,
      "sur": 2719,
      "matti": 2720,
      "sott": 2721,
      "volle": 2722,
      "sicura": 2723,
      "fussi": 2724,
      "muro": 2725,
      "raro": 2726,
      "##dol": 2727,
      "rosa": 2728,
      "##fer": 2729,
      "vergine": 2730,
      "##esu": 2731,
      "dovea": 2732,
      "cruda": 2733,
      "##glion": 2734,
      "miseri": 2735,
      "##ph": 2736,
      "amare": 2737,
      "zer": 2738,
      "##mendo": 2739,
      "##cie": 2740,
      "fuori": 2741,
      "sacra": 2742,
      "negli": 2743,
      "sensi": 2744,
      "peggio": 2745,
      "zo": 2746,
      "dagli": 2747,
      "meo": 2748,
      "ascol": 2749,
      "difesa": 2750,
      "governo": 2751,
      "felici": 2752,
      "ossa": 2753,
      "scorta": 2754,
      "compagni": 2755,
      "subli": 2756,
      "esp": 2757,
      "privo": 2758,
      "passato": 2759,
      "lento": 2760,
      "forze": 2761,
      "bast": 2762,
      "consorte": 2763,
      "ire": 2764,
      "rico": 2765,
      "giocondo": 2766,
      "spira": 2767,
      "##mini": 2768,
      "##lante": 2769,
      "secu": 2770,
      "posta": 2771,
      "augu": 2772,
      "capitan": 2773,
      "conduce": 2774,
      "infi": 2775,
      "##ccar": 2776,
      "sede": 2777,
      "stil": 2778,
      "comincia": 2779,
      "adorna": 2780,
      "##estia": 2781,
      "siede": 2782,
      "nutri": 2783,
      "##marte": 2784,
      "eroi": 2785,
      "temer": 2786,
      "gioven": 2787,
      "ron": 2788,
      "subi": 2789,
      "cl": 2790,
      "##fetto": 2791,
      "occi": 2792,
      "rea": 2793,
      "##zzar": 2794,
      "serva": 2795,
      "stima": 2796,
      "soggiorno": 2797,
      "corse": 2798,
      "temo": 2799,
      "niente": 2800,
      "splendore": 2801,
      "fanciu": 2802,
      "##gal": 2803,
      "perduto": 2804,
      "usato": 2805,
      "pl": 2806,
      "visi": 2807,
      "fida": 2808,
      "scorno": 2809,
      "sforza": 2810,
      "##tendo": 2811,
      "##cata": 2812,
      "febo": 2813,
      "tesoro": 2814,
      "sarebbe": 2815,
      "afri": 2816,
      "vanto": 2817,
      "##vole": 2818,
      "amp": 2819,
      "cora": 2820,
      "noia": 2821,
      "vai": 2822,
      "vaghi": 2823,
      "gener": 2824,
      "peccato": 2825,
      "cadde": 2826,
      "##pido": 2827,
      "grembo": 2828,
      "incontro": 2829,
      "plu": 2830,
      "perfe": 2831,
      "scende": 2832,
      "sorella": 2833,
      "largo": 2834,
      "##enzia": 2835,
      "lido": 2836,
      "most": 2837,
      "gode": 2838,
      "favella": 2839,
      "pros": 2840,
      "##dici": 2841,
      "giro": 2842,
      "pover": 2843,
      "scia": 2844,
      "grandi": 2845,
      "ardor": 2846,
      "regna": 2847,
      "fro": 2848,
      "##mone": 2849,
      "secre": 2850,
      "piume": 2851,
      "cotanto": 2852,
      "nubi": 2853,
      "lavoro": 2854,
      "river": 2855,
      "porre": 2856,
      "##ondi": 2857,
      "alba": 2858,
      "##almente": 2859,
      "sperar": 2860,
      "resti": 2861,
      "##dore": 2862,
      "fami": 2863,
      "ardir": 2864,
      "nebbia": 2865,
      "##schi": 2866,
      "scorge": 2867,
      "comincio": 2868,
      "vele": 2869,
      "##zone": 2870,
      "loda": 2871,
      "avra": 2872,
      "##taro": 2873,
      "camino": 2874,
      "facci": 2875,
      "sentir": 2876,
      "frutti": 2877,
      "cavalliero": 2878,
      "saracin": 2879,
      "cca": 2880,
      "sv": 2881,
      "##rende": 2882,
      "pietade": 2883,
      "parlare": 2884,
      "ritorn": 2885,
      "tenea": 2886,
      "bias": 2887,
      "furon": 2888,
      "ruina": 2889,
      "solea": 2890,
      "disci": 2891,
      "tolta": 2892,
      "oltraggio": 2893,
      "##manti": 2894,
      "cagione": 2895,
      "ratto": 2896,
      "impro": 2897,
      "##jje": 2898,
      "possanza": 2899,
      "sembra": 2900,
      "modi": 2901,
      "fun": 2902,
      "favi": 2903,
      "giunge": 2904,
      "schiere": 2905,
      "brandimarte": 2906,
      "ada": 2907,
      "leon": 2908,
      "mari": 2909,
      "manif": 2910,
      "umano": 2911,
      "##lin": 2912,
      "posse": 2913,
      "sorri": 2914,
      "ghiaccio": 2915,
      "##phi": 2916,
      "##armi": 2917,
      "##mis": 2918,
      "erra": 2919,
      "scoglio": 2920,
      "havesse": 2921,
      "ssi": 2922,
      "ricca": 2923,
      "cresc": 2924,
      "cangia": 2925,
      "guada": 2926,
      "illustre": 2927,
      "dianzi": 2928,
      "pigli": 2929,
      "ancho": 2930,
      "aba": 2931,
      "ere": 2932,
      "invano": 2933,
      "almo": 2934,
      "semp": 2935,
      "rivi": 2936,
      "anchora": 2937,
      "ciascuna": 2938,
      "pensar": 2939,
      "##ulo": 2940,
      "##sero": 2941,
      "gigante": 2942,
      "moro": 2943,
      "##gan": 2944,
      "humi": 2945,
      "terreno": 2946,
      "erran": 2947,
      "misura": 2948,
      "stia": 2949,
      "nnun": 2950,
      "disde": 2951,
      "guan": 2952,
      "potesse": 2953,
      "credi": 2954,
      "percosse": 2955,
      "iste": 2956,
      "orr": 2957,
      "vene": 2958,
      "bradamante": 2959,
      "drieto": 2960,
      "##dini": 2961,
      "divo": 2962,
      "magi": 2963,
      "veggia": 2964,
      "sala": 2965,
      "##colo": 2966,
      "alor": 2967,
      "##ciu": 2968,
      "pati": 2969,
      "colon": 2970,
      "regni": 2971,
      "diceva": 2972,
      "sapea": 2973,
      "##gere": 2974,
      "senso": 2975,
      "destino": 2976,
      "gelo": 2977,
      "##veri": 2978,
      "scel": 2979,
      "esto": 2980,
      "appena": 2981,
      "momento": 2982,
      "lieve": 2983,
      "##arte": 2984,
      "##vato": 2985,
      "intese": 2986,
      "oriente": 2987,
      "porge": 2988,
      "muta": 2989,
      "chiamo": 2990,
      "infinita": 2991,
      "fio": 2992,
      "accesa": 2993,
      "##monio": 2994,
      "ninfe": 2995,
      "rib": 2996,
      "vecchia": 2997,
      "rei": 2998,
      "dispetto": 2999,
      "stata": 3000,
      "maggiore": 3001,
      "oppre": 3002,
      "nemici": 3003,
      "penna": 3004,
      "molt": 3005,
      "parola": 3006,
      "sogno": 3007,
      "giar": 3008,
      "##gnato": 3009,
      "cchi": 3010,
      "ina": 3011,
      "ciglio": 3012,
      "serba": 3013,
      "partito": 3014,
      "dun": 3015,
      "sante": 3016,
      "##giona": 3017,
      "diste": 3018,
      "piaccia": 3019,
      "profondo": 3020,
      "tte": 3021,
      "soavi": 3022,
      "##gore": 3023,
      "ambi": 3024,
      "human": 3025,
      "sospetto": 3026,
      "turb": 3027,
      "strano": 3028,
      "##iato": 3029,
      "gire": 3030,
      "##meno": 3031,
      "diva": 3032,
      "deo": 3033,
      "##ture": 3034,
      "imma": 3035,
      "prendi": 3036,
      "perd": 3037,
      "magn": 3038,
      "rotto": 3039,
      "angos": 3040,
      "pietosa": 3041,
      "lusin": 3042,
      "##dusse": 3043,
      "inno": 3044,
      "succ": 3045,
      "quegli": 3046,
      "ebb": 3047,
      "jj": 3048,
      "mini": 3049,
      "fatte": 3050,
      "serp": 3051,
      "veggo": 3052,
      "##estre": 3053,
      "pasce": 3054,
      "##ulto": 3055,
      "fla": 3056,
      "ucc": 3057,
      "taglia": 3058,
      "viaggio": 3059,
      "acquista": 3060,
      "suspi": 3061,
      "!,": 3062,
      "glorioso": 3063,
      "imb": 3064,
      "mando": 3065,
      "avria": 3066,
      "cerco": 3067,
      "rodo": 3068,
      "sien": 3069,
      "fame": 3070,
      "lode": 3071,
      "insino": 3072,
      "cce": 3073,
      "dite": 3074,
      "nec": 3075,
      "##use": 3076,
      "ride": 3077,
      "esti": 3078,
      "gemme": 3079,
      "##mino": 3080,
      "chiamar": 3081,
      "assalto": 3082,
      "##tegno": 3083,
      "bai": 3084,
      "immortal": 3085,
      "##uda": 3086,
      "rabbia": 3087,
      "incen": 3088,
      "ranaldo": 3089,
      "affi": 3090,
      "ferito": 3091,
      "trov": 3092,
      "vince": 3093,
      "andava": 3094,
      "##mmai": 3095,
      "ala": 3096,
      "muse": 3097,
      "sospira": 3098,
      "bianche": 3099,
      "aggiun": 3100,
      "##entia": 3101,
      "volere": 3102,
      "presen": 3103,
      "lucente": 3104,
      "##orie": 3105,
      "panni": 3106,
      "sini": 3107,
      "saro": 3108,
      "incre": 3109,
      "gregge": 3110,
      "gan": 3111,
      "##enzio": 3112,
      "alb": 3113,
      "degni": 3114,
      "palma": 3115,
      "servir": 3116,
      "disegno": 3117,
      "pietoso": 3118,
      "care": 3119,
      "hi": 3120,
      "dolcemente": 3121,
      "denti": 3122,
      "fuore": 3123,
      "scol": 3124,
      "certa": 3125,
      "minaccia": 3126,
      "ia": 3127,
      "##gliardo": 3128,
      "fian": 3129,
      "##trare": 3130,
      "state": 3131,
      "sciolto": 3132,
      "cani": 3133,
      "partita": 3134,
      "splende": 3135,
      "segni": 3136,
      "proc": 3137,
      "gratia": 3138,
      "ingra": 3139,
      "destriero": 3140,
      "giovane": 3141,
      "dr": 3142,
      "pruo": 3143,
      "##tello": 3144,
      "bramo": 3145,
      "famoso": 3146,
      "seggio": 3147,
      "##tena": 3148,
      "guardia": 3149,
      "prender": 3150,
      "davanti": 3151,
      "infiamma": 3152,
      "##alla": 3153,
      "regge": 3154,
      "destro": 3155,
      "saldo": 3156,
      "usanza": 3157,
      "tronco": 3158,
      "aus": 3159,
      "labb": 3160,
      "vigor": 3161,
      "giammai": 3162,
      "innamora": 3163,
      "##ial": 3164,
      "giogo": 3165,
      "sosten": 3166,
      "riti": 3167,
      "sparse": 3168,
      "armata": 3169,
      "ultima": 3170,
      "pigliar": 3171,
      "zerb": 3172,
      "eri": 3173,
      "igno": 3174,
      "tace": 3175,
      "spade": 3176,
      "##orre": 3177,
      "detti": 3178,
      "ringra": 3179,
      "perdon": 3180,
      "taci": 3181,
      "cinto": 3182,
      "soffri": 3183,
      "agi": 3184,
      "##hora": 3185,
      "onori": 3186,
      "##quo": 3187,
      "marsilio": 3188,
      "cerchio": 3189,
      "benigno": 3190,
      "legg": 3191,
      "avven": 3192,
      "saetta": 3193,
      "##th": 3194,
      "sui": 3195,
      "##tum": 3196,
      "distru": 3197,
      "cercar": 3198,
      "##poi": 3199,
      "rif": 3200,
      "mora": 3201,
      "regi": 3202,
      "##duce": 3203,
      "##terna": 3204,
      "somma": 3205,
      "obli": 3206,
      "stretto": 3207,
      "regina": 3208,
      "sulla": 3209,
      "asciu": 3210,
      "supp": 3211,
      "impa": 3212,
      "lasciato": 3213,
      "##ttur": 3214,
      "##dera": 3215,
      "##gare": 3216,
      "lacci": 3217,
      "malva": 3218,
      "serena": 3219,
      "tai": 3220,
      "chioma": 3221,
      "honore": 3222,
      "favor": 3223,
      "briglia": 3224,
      "stringe": 3225,
      "alp": 3226,
      "laccio": 3227,
      "mill": 3228,
      "##oit": 3229,
      "more": 3230,
      "##zar": 3231,
      "perho": 3232,
      "##vier": 3233,
      "spagna": 3234,
      "roll": 3235,
      "vesta": 3236,
      "##rare": 3237,
      "congiun": 3238,
      "##uni": 3239,
      "volenti": 3240,
      "perfetto": 3241,
      "ardo": 3242,
      "persone": 3243,
      "prieghi": 3244,
      "truova": 3245,
      "ple": 3246,
      "solle": 3247,
      "spavento": 3248,
      "scritto": 3249,
      "eh": 3250,
      "marphi": 3251,
      "accompa": 3252,
      "compagno": 3253,
      "nimico": 3254,
      "audace": 3255,
      "ache": 3256,
      "schia": 3257,
      "prati": 3258,
      "marphisa": 3259,
      "gola": 3260,
      "##lice": 3261,
      "segua": 3262,
      "nume": 3263,
      "celesti": 3264,
      "dimostra": 3265,
      "fallace": 3266,
      "perle": 3267,
      "dispi": 3268,
      "signori": 3269,
      "stanca": 3270,
      "arno": 3271,
      "maria": 3272,
      "strale": 3273,
      "celo": 3274,
      "##uria": 3275,
      "corri": 3276,
      "real": 3277,
      "ninfa": 3278,
      "gr": 3279,
      "vela": 3280,
      "##cqui": 3281,
      "diri": 3282,
      "##rena": 3283,
      "gagliardo": 3284,
      "varco": 3285,
      "mel": 3286,
      "roi": 3287,
      "stagion": 3288,
      "##monia": 3289,
      "muove": 3290,
      "magnani": 3291,
      "ferra": 3292,
      "##gono": 3293,
      "levo": 3294,
      "##tante": 3295,
      "##dire": 3296,
      "lasciando": 3297,
      "illustri": 3298,
      "rodomonte": 3299,
      "etade": 3300,
      "penti": 3301,
      "muto": 3302,
      "amata": 3303,
      "mm": 3304,
      "fiere": 3305,
      "sbi": 3306,
      "dic": 3307,
      "forni": 3308,
      "dispre": 3309,
      "frate": 3310,
      "aspre": 3311,
      "farmi": 3312,
      "destin": 3313,
      "anime": 3314,
      "attende": 3315,
      "campagna": 3316,
      "bandi": 3317,
      "zi": 3318,
      "##ete": 3319,
      "corsi": 3320,
      "trapa": 3321,
      "tomba": 3322,
      "##deli": 3323,
      "devo": 3324,
      "spene": 3325,
      "credea": 3326,
      "conviene": 3327,
      "osti": 3328,
      "premio": 3329,
      "infin": 3330,
      "vedre": 3331,
      "nottur": 3332,
      "valli": 3333,
      "allegre": 3334,
      "specchio": 3335,
      "drento": 3336,
      "##tera": 3337,
      "intento": 3338,
      "conta": 3339,
      "##mpe": 3340,
      "memb": 3341,
      "cori": 3342,
      "pregi": 3343,
      "adesso": 3344,
      "vous": 3345,
      "popul": 3346,
      "empie": 3347,
      "orribil": 3348,
      "sali": 3349,
      "##teria": 3350,
      "crine": 3351,
      "meraviglia": 3352,
      "ohi": 3353,
      "costumi": 3354,
      "##erta": 3355,
      "date": 3356,
      "fore": 3357,
      "##sser": 3358,
      "terri": 3359,
      "incomin": 3360,
      "rispl": 3361,
      "priego": 3362,
      "##tie": 3363,
      "piango": 3364,
      "larga": 3365,
      "polve": 3366,
      "animal": 3367,
      "##ment": 3368,
      "vane": 3369,
      "mesto": 3370,
      "##osia": 3371,
      "tristi": 3372,
      "antichi": 3373,
      "getta": 3374,
      "ombr": 3375,
      "rimb": 3376,
      "ognuno": 3377,
      "nudo": 3378,
      "cerchi": 3379,
      "rotta": 3380,
      "eletto": 3381,
      "tren": 3382,
      "ves": 3383,
      "nocchi": 3384,
      "nube": 3385,
      "piazza": 3386,
      "presi": 3387,
      "noto": 3388,
      "accorto": 3389,
      "acerbo": 3390,
      "giovinetto": 3391,
      "##cin": 3392,
      "##cun": 3393,
      "##ves": 3394,
      "compi": 3395,
      "parmi": 3396,
      "ciglia": 3397,
      "sangu": 3398,
      "tenere": 3399,
      "perpe": 3400,
      "sappi": 3401,
      "##trio": 3402,
      "##moni": 3403,
      "trib": 3404,
      "##turo": 3405,
      "liete": 3406,
      "ebbi": 3407,
      "inn": 3408,
      "feci": 3409,
      "contrario": 3410,
      "giura": 3411,
      "potria": 3412,
      "ragiona": 3413,
      "chiuse": 3414,
      "risposta": 3415,
      ".\"": 3416,
      "##ttura": 3417,
      "##gnos": 3418,
      "canzon": 3419,
      "dieci": 3420,
      "cavallieri": 3421,
      "cla": 3422,
      "vanta": 3423,
      "##stre": 3424,
      "##danza": 3425,
      "ogne": 3426,
      "mesch": 3427,
      "##dron": 3428,
      "ammi": 3429,
      "ell": 3430,
      "naso": 3431,
      "diviso": 3432,
      "rimase": 3433,
      "##cte": 3434,
      "accenti": 3435,
      "vinta": 3436,
      "ohime": 3437,
      "mesta": 3438,
      "##udo": 3439,
      "grazio": 3440,
      "verace": 3441,
      "seguendo": 3442,
      "##tone": 3443,
      "##eria": 3444,
      "dure": 3445,
      "entrar": 3446,
      "spazio": 3447,
      "libero": 3448,
      "render": 3449,
      "silenzio": 3450,
      "nui": 3451,
      "##dosso": 3452,
      "sull": 3453,
      "mirabil": 3454,
      "leggiadro": 3455,
      "inca": 3456,
      "risc": 3457,
      "case": 3458,
      "coro": 3459,
      "##trin": 3460,
      "ag": 3461,
      "##utar": 3462,
      "tali": 3463,
      "inteso": 3464,
      "##dasso": 3465,
      "reo": 3466,
      "pregia": 3467,
      "affre": 3468,
      "palla": 3469,
      "offese": 3470,
      "estremo": 3471,
      "##fia": 3472,
      "##orna": 3473,
      "lauro": 3474,
      "##ciuto": 3475,
      "timi": 3476,
      "acca": 3477,
      "salva": 3478,
      "cele": 3479,
      "parigi": 3480,
      "messe": 3481,
      "##tava": 3482,
      "giusta": 3483,
      "avessi": 3484,
      "bestia": 3485,
      "##done": 3486,
      "sep": 3487,
      "arse": 3488,
      "mormor": 3489,
      "cola": 3490,
      "##volta": 3491,
      "vieni": 3492,
      "beata": 3493,
      "martiri": 3494,
      "sve": 3495,
      "miro": 3496,
      "corna": 3497,
      "volgo": 3498,
      "forme": 3499,
      "salto": 3500,
      "offende": 3501,
      "cristiani": 3502,
      "dev": 3503,
      "amara": 3504,
      "senta": 3505,
      "ognora": 3506,
      "##andro": 3507,
      "crista": 3508,
      "diana": 3509,
      "vedete": 3510,
      "fanciulla": 3511,
      "antro": 3512,
      "sposo": 3513,
      "furia": 3514,
      "rocca": 3515,
      "primavera": 3516,
      "cqua": 3517,
      "##etta": 3518,
      "##cel": 3519,
      "##ala": 3520,
      "duci": 3521,
      "sentiero": 3522,
      "strani": 3523,
      "giustizia": 3524,
      "squ": 3525,
      "uti": 3526,
      "ugu": 3527,
      "##lico": 3528,
      "##ppio": 3529,
      "mosso": 3530,
      "eterni": 3531,
      "strugge": 3532,
      "lla": 3533,
      "##olla": 3534,
      "imprese": 3535,
      "sembianza": 3536,
      "fri": 3537,
      "vino": 3538,
      "veri": 3539,
      "lassi": 3540,
      "##alli": 3541,
      "venere": 3542,
      "dispia": 3543,
      "vana": 3544,
      "##lta": 3545,
      "##arlo": 3546,
      "ordine": 3547,
      "coper": 3548,
      "gradasso": 3549,
      "giostra": 3550,
      "##...": 3551,
      "prenda": 3552,
      "martir": 3553,
      "arena": 3554,
      "ingor": 3555,
      "arbor": 3556,
      "##onte": 3557,
      "##orato": 3558,
      "indietro": 3559,
      "leggiadre": 3560,
      "ventre": 3561,
      "##gata": 3562,
      "marmo": 3563,
      "gotti": 3564,
      "cinque": 3565,
      "verra": 3566,
      "contr": 3567,
      "casta": 3568,
      "lice": 3569,
      "##erei": 3570,
      "bagna": 3571,
      "ponno": 3572,
      "greco": 3573,
      "ovunque": 3574,
      "aperse": 3575,
      "aggra": 3576,
      "##gini": 3577,
      "ripi": 3578,
      "invita": 3579,
      "oste": 3580,
      "percu": 3581,
      "petti": 3582,
      "vedra": 3583,
      "fuggendo": 3584,
      "!\"": 3585,
      "sire": 3586,
      "solitar": 3587,
      "##cardo": 3588,
      "lamenti": 3589,
      "archi": 3590,
      "trema": 3591,
      "immortale": 3592,
      "indegno": 3593,
      "flu": 3594,
      "nor": 3595,
      "##lan": 3596,
      "chiesa": 3597,
      "orme": 3598,
      "fosco": 3599,
      "cala": 3600,
      "cede": 3601,
      "arriva": 3602,
      "sbigo": 3603,
      "colore": 3604,
      "duri": 3605,
      "##vers": 3606,
      "appi": 3607,
      "##rete": 3608,
      "ramo": 3609,
      "sven": 3610,
      "sotti": 3611,
      "desta": 3612,
      "contenta": 3613,
      "squadre": 3614,
      "agn": 3615,
      "##pon": 3616,
      "lamento": 3617,
      "##oste": 3618,
      "cono": 3619,
      "##cate": 3620,
      "amando": 3621,
      "##erata": 3622,
      "molli": 3623,
      "diparti": 3624,
      "zelo": 3625,
      "maestro": 3626,
      "##tuto": 3627,
      "piaghe": 3628,
      "armati": 3629,
      "propria": 3630,
      "tenebr": 3631,
      "peregr": 3632,
      "sublime": 3633,
      "aer": 3634,
      "bba": 3635,
      "uscio": 3636,
      "##tero": 3637,
      "##tanti": 3638,
      "fuora": 3639,
      "foglie": 3640,
      "incanta": 3641,
      "fonti": 3642,
      "nuove": 3643,
      "conosce": 3644,
      "imperio": 3645,
      "cco": 3646,
      "##iamo": 3647,
      "leti": 3648,
      "casti": 3649,
      "voto": 3650,
      "troia": 3651,
      "appo": 3652,
      "fossi": 3653,
      "giunta": 3654,
      "sotterra": 3655,
      "sappia": 3656,
      "nota": 3657,
      "desire": 3658,
      "mensa": 3659,
      "stuolo": 3660,
      "##sola": 3661,
      "seria": 3662,
      "legato": 3663,
      "havean": 3664,
      "##cone": 3665,
      "catena": 3666,
      "##inato": 3667,
      "stette": 3668,
      "frondi": 3669,
      "ferita": 3670,
      "triste": 3671,
      "bbu": 3672,
      "atro": 3673,
      "atte": 3674,
      "##den": 3675,
      "##dun": 3676,
      "##denti": 3677,
      "vecchi": 3678,
      "offesa": 3679,
      "uccise": 3680,
      "leggiadra": 3681,
      "inante": 3682,
      "spiega": 3683,
      "pronto": 3684,
      "##........": 3685,
      "##dico": 3686,
      "disper": 3687,
      "amori": 3688,
      "strali": 3689,
      "rompe": 3690,
      "gau": 3691,
      "traditor": 3692,
      "perpetu": 3693,
      "##ganti": 3694,
      "sponde": 3695,
      "palese": 3696,
      "allegra": 3697,
      "lha": 3698,
      "baci": 3699,
      "strade": 3700,
      "punta": 3701,
      "saracino": 3702,
      "vve": 3703,
      "##olti": 3704,
      "avaro": 3705,
      "cogli": 3706,
      "tormenti": 3707,
      "sprona": 3708,
      "\",": 3709,
      "disfa": 3710,
      "##erebbe": 3711,
      "##prir": 3712,
      "soi": 3713,
      "perder": 3714,
      "suona": 3715,
      "tergo": 3716,
      "dda": 3717,
      "smor": 3718,
      "sfo": 3719,
      "vv": 3720,
      "##tel": 3721,
      "invan": 3722,
      "fiso": 3723,
      "prode": 3724,
      "horri": 3725,
      "spirito": 3726,
      "giri": 3727,
      "lodi": 3728,
      "diletta": 3729,
      "vicin": 3730,
      "siete": 3731,
      "th": 3732,
      "vani": 3733,
      "##dica": 3734,
      "siam": 3735,
      "eroe": 3736,
      "##tani": 3737,
      "viole": 3738,
      "dapoi": 3739,
      "##bba": 3740,
      "sentier": 3741,
      "irato": 3742,
      "rivolto": 3743,
      "martire": 3744,
      "rosso": 3745,
      "preci": 3746,
      "lance": 3747,
      "benigna": 3748,
      "sfi": 3749,
      "##andon": 3750,
      "##tati": 3751,
      "pasc": 3752,
      "##ficio": 3753,
      "sparge": 3754,
      "maravi": 3755,
      "castello": 3756,
      "fanta": 3757,
      "testi": 3758,
      "##cenza": 3759,
      "contin": 3760,
      "arder": 3761,
      "povero": 3762,
      "morso": 3763,
      "duole": 3764,
      "amorosi": 3765,
      "ghe": 3766,
      "altezza": 3767,
      "fugi": 3768,
      "accen": 3769,
      "serpe": 3770,
      "bianchi": 3771,
      "esempio": 3772,
      "fr": 3773,
      "sm": 3774,
      "##cero": 3775,
      "data": 3776,
      "antiche": 3777,
      "ritrova": 3778,
      "##ai": 3779,
      "miri": 3780,
      "##pito": 3781,
      "voti": 3782,
      "grata": 3783,
      "candida": 3784,
      "lacrime": 3785,
      "dara": 3786,
      "geni": 3787,
      "sop": 3788,
      "qualunque": 3789,
      "amorose": 3790,
      "frances": 3791,
      "odor": 3792,
      "spinge": 3793,
      "##erse": 3794,
      "insi": 3795,
      "conser": 3796,
      "unqua": 3797,
      "richi": 3798,
      "parlando": 3799,
      "seguire": 3800,
      "nemica": 3801,
      "aprir": 3802,
      "faville": 3803,
      "dardo": 3804,
      "##iocchi": 3805,
      "##inar": 3806,
      "conto": 3807,
      "provi": 3808,
      "fossa": 3809,
      "ingombra": 3810,
      "afflitto": 3811,
      "varie": 3812,
      "villan": 3813,
      "cle": 3814,
      "lle": 3815,
      "##pino": 3816,
      "dira": 3817,
      "ritra": 3818,
      "cognos": 3819,
      "##mondo": 3820,
      "natural": 3821,
      "volon": 3822,
      "sostegno": 3823,
      "lunghi": 3824,
      "spezza": 3825,
      "paladino": 3826,
      "bonta": 3827,
      "ros": 3828,
      "##presso": 3829,
      "sarai": 3830,
      "lontana": 3831,
      "conosco": 3832,
      "veggendo": 3833,
      "onorata": 3834,
      "inimi": 3835,
      "ade": 3836,
      "##dana": 3837,
      "elle": 3838,
      "fiato": 3839,
      "inchio": 3840,
      "##ggiando": 3841,
      "trafi": 3842,
      "##tarsi": 3843,
      "##ttando": 3844,
      "gridando": 3845,
      "inganna": 3846,
      "scorza": 3847,
      "guerrieri": 3848,
      "popolo": 3849,
      "##ggno": 3850,
      "costoro": 3851,
      "nati": 3852,
      "scusa": 3853,
      "tornare": 3854,
      "spen": 3855,
      "##ttore": 3856,
      "invitto": 3857,
      "grosso": 3858,
      "allegrezza": 3859,
      "perse": 3860,
      "seconda": 3861,
      "##gga": 3862,
      "padri": 3863,
      "radice": 3864,
      "##tretto": 3865,
      "baroni": 3866,
      "cittade": 3867,
      "##feo": 3868,
      "veramente": 3869,
      "immenso": 3870,
      "gelosia": 3871,
      "conv": 3872,
      "rete": 3873,
      "nie": 3874,
      "nera": 3875,
      "calle": 3876,
      "diversi": 3877,
      "danna": 3878,
      "poli": 3879,
      "latte": 3880,
      "conqui": 3881,
      "avvien": 3882,
      "sospiro": 3883,
      "piove": 3884,
      "orecchie": 3885,
      "quantunque": 3886,
      "##fre": 3887,
      "disa": 3888,
      "volu": 3889,
      "tan": 3890,
      "tem": 3891,
      "pai": 3892,
      "scin": 3893,
      "pezzo": 3894,
      "apparir": 3895,
      "prole": 3896,
      "uo": 3897,
      "mese": 3898,
      "farne": 3899,
      "saette": 3900,
      "miglia": 3901,
      "##ttare": 3902,
      "guerre": 3903,
      "libera": 3904,
      "paladin": 3905,
      "salir": 3906,
      "salvar": 3907,
      "tarda": 3908,
      "fedele": 3909,
      "gliocchi": 3910,
      "vinse": 3911,
      "pagano": 3912,
      "cavalieri": 3913,
      "gino": 3914,
      "rino": 3915,
      "##orti": 3916,
      "unde": 3917,
      "lour": 3918,
      "trasc": 3919,
      "##pira": 3920,
      "stral": 3921,
      "tenebre": 3922,
      "turbato": 3923,
      "baiardo": 3924,
      "perdono": 3925,
      "novi": 3926,
      "dole": 3927,
      "##zzia": 3928,
      "##vra": 3929,
      "##cati": 3930,
      "sorge": 3931,
      "fuggire": 3932,
      "gela": 3933,
      "##tea": 3934,
      "##gnando": 3935,
      "rimemb": 3936,
      "laltro": 3937,
      "sso": 3938,
      "##pina": 3939,
      "##lon": 3940,
      "armonia": 3941,
      "correndo": 3942,
      "doler": 3943,
      "marina": 3944,
      "frale": 3945,
      "fatiche": 3946,
      "egi": 3947,
      "ggia": 3948,
      "stando": 3949,
      "viri": 3950,
      "richia": 3951,
      "##mita": 3952,
      "padi": 3953,
      "costor": 3954,
      "cane": 3955,
      "appa": 3956,
      "sospin": 3957,
      "inchina": 3958,
      "perfi": 3959,
      "##ssimi": 3960,
      "punge": 3961,
      "gloriosa": 3962,
      "odo": 3963,
      "secol": 3964,
      "##ggiu": 3965,
      "purp": 3966,
      "ritornar": 3967,
      "conforta": 3968,
      "intra": 3969,
      "capp": 3970,
      "racco": 3971,
      "dubi": 3972,
      "ciasche": 3973,
      "sparte": 3974,
      "etate": 3975,
      "##com": 3976,
      "##uo": 3977,
      "lati": 3978,
      "##die": 3979,
      "ricer": 3980,
      "desia": 3981,
      "tuttavia": 3982,
      "chiude": 3983,
      "famiglia": 3984,
      "ou": 3985,
      "sano": 3986,
      "##coli": 3987,
      "##cide": 3988,
      "ambo": 3989,
      "farlo": 3990,
      "guerriero": 3991,
      "augel": 3992,
      "seri": 3993,
      "sguar": 3994,
      "quo": 3995,
      "meta": 3996,
      "avve": 3997,
      "ingrato": 3998,
      "stir": 3999,
      "semb": 4000,
      "cava": 4001,
      "corpi": 4002,
      "mandri": 4003,
      "certi": 4004,
      "offeso": 4005,
      "onorato": 4006,
      "pellegr": 4007,
      "tetto": 4008,
      "ettor": 4009,
      "afflitta": 4010,
      "euro": 4011,
      "ghi": 4012,
      "onta": 4013,
      "dimmi": 4014,
      "dorme": 4015,
      "cquer": 4016,
      "obb": 4017,
      "invo": 4018,
      "remi": 4019,
      "distin": 4020,
      "prime": 4021,
      "entr": 4022,
      "perdona": 4023,
      "dello": 4024,
      "##sch": 4025,
      "##grin": 4026,
      "##olte": 4027,
      "ormai": 4028,
      "##nato": 4029,
      "adosso": 4030,
      "apparve": 4031,
      "sanno": 4032,
      "vui": 4033,
      "##cento": 4034,
      "mort": 4035,
      "vena": 4036,
      "immo": 4037,
      "sperando": 4038,
      "chiusa": 4039,
      "odori": 4040,
      "patto": 4041,
      "gradi": 4042,
      "ja": 4043,
      "##pera": 4044,
      "facto": 4045,
      "##lato": 4046,
      "nobile": 4047,
      "togli": 4048,
      "dintorno": 4049,
      "?\"": 4050,
      "egre": 4051,
      "##olle": 4052,
      "concor": 4053,
      "ord": 4054,
      "timore": 4055,
      "##unta": 4056,
      "rob": 4057,
      "abbandona": 4058,
      "riparo": 4059,
      "inver": 4060,
      "vizio": 4061,
      "fumo": 4062,
      "adora": 4063,
      "##stante": 4064,
      "##menza": 4065,
      "isola": 4066,
      "novelle": 4067,
      "bona": 4068,
      "rend": 4069,
      "##bio": 4070,
      "##denza": 4071,
      "##genti": 4072,
      "tratta": 4073,
      "pondo": 4074,
      "dritta": 4075,
      "laude": 4076,
      "ritrar": 4077,
      "provar": 4078,
      "affa": 4079,
      "discer": 4080,
      "istoria": 4081,
      "gus": 4082,
      "stende": 4083,
      "cali": 4084,
      "incar": 4085,
      "alzar": 4086,
      "ome": 4087,
      "##ggni": 4088,
      "dili": 4089,
      "##osti": 4090,
      "cela": 4091,
      "equ": 4092,
      "occa": 4093,
      "##dria": 4094,
      "##tes": 4095,
      "debbe": 4096,
      "rilu": 4097,
      "stati": 4098,
      "percossa": 4099,
      "segre": 4100,
      "seppe": 4101,
      "vivan": 4102,
      "corsa": 4103,
      "cuo": 4104,
      "cerv": 4105,
      "fratelli": 4106,
      "abbraccia": 4107,
      "carco": 4108,
      "intero": 4109,
      "portava": 4110,
      "vicina": 4111,
      "dava": 4112,
      "incanto": 4113,
      "ucciso": 4114,
      "nomi": 4115,
      "primiero": 4116,
      "candido": 4117,
      "vendicar": 4118,
      "eser": 4119,
      "salvo": 4120,
      "udito": 4121,
      "sapere": 4122,
      "##mero": 4123,
      "##von": 4124,
      "##vendo": 4125,
      "##xi": 4126,
      "vogli": 4127,
      "fresca": 4128,
      "aspettar": 4129,
      "aperta": 4130,
      "tranquillo": 4131,
      "condotto": 4132,
      "altar": 4133,
      "volgi": 4134,
      "nata": 4135,
      "cul": 4136,
      "siate": 4137,
      "creda": 4138,
      "tacque": 4139,
      "tel": 4140,
      "##uma": 4141,
      "##doro": 4142,
      "avante": 4143,
      "sosp": 4144,
      "falsa": 4145,
      "buoni": 4146,
      "cetra": 4147,
      "diletti": 4148,
      "studio": 4149,
      "ragionar": 4150,
      "augelli": 4151,
      "bruna": 4152,
      "potrebbe": 4153,
      "potere": 4154,
      "imagin": 4155,
      "mostrando": 4156,
      "pelo": 4157,
      "sover": 4158,
      "lupo": 4159,
      "diverse": 4160,
      "zerbin": 4161,
      "mun": 4162,
      "##ann": 4163,
      "poeta": 4164,
      "giovene": 4165,
      "##tten": 4166,
      "##far": 4167,
      "##gnosa": 4168,
      "sendo": 4169,
      "stolto": 4170,
      "rimedio": 4171,
      "aviso": 4172,
      "vincitor": 4173,
      "atta": 4174,
      "azz": 4175,
      "nembo": 4176,
      "tebro": 4177,
      "torbi": 4178,
      "impor": 4179,
      "angel": 4180,
      "domanda": 4181,
      "stretta": 4182,
      "vulgo": 4183,
      "achei": 4184,
      "mandricardo": 4185,
      "agri": 4186,
      "##gone": 4187,
      "condi": 4188,
      "##cose": 4189,
      "remo": 4190,
      "tiranno": 4191,
      "terr": 4192,
      "ardita": 4193,
      "discre": 4194,
      "nimici": 4195,
      "lli": 4196,
      "comanda": 4197,
      "furi": 4198,
      "avvol": 4199,
      "mandar": 4200,
      "barone": 4201,
      "infinito": 4202,
      "##iam": 4203,
      "##dati": 4204,
      "teu": 4205,
      "desti": 4206,
      "cammin": 4207,
      "bando": 4208,
      "reli": 4209,
      "almeno": 4210,
      "percio": 4211,
      "cada": 4212,
      "inal": 4213,
      "##allo": 4214,
      "vegna": 4215,
      "chiar": 4216,
      "fie": 4217,
      "##scri": 4218,
      "colori": 4219,
      "eletti": 4220,
      "castel": 4221,
      "pane": 4222,
      "##enne": 4223,
      "mise": 4224,
      "infra": 4225,
      "guardar": 4226,
      "scese": 4227,
      "riveder": 4228,
      "tosco": 4229,
      "##ner": 4230,
      "ripa": 4231,
      "casi": 4232,
      "coperto": 4233,
      "basti": 4234,
      "hoggi": 4235,
      "romani": 4236,
      "langue": 4237,
      "stirpe": 4238,
      "##doglio": 4239,
      "luoco": 4240,
      "vaso": 4241,
      "trovi": 4242,
      "barba": 4243,
      "contenti": 4244,
      "donzelle": 4245,
      "suppli": 4246,
      "piene": 4247,
      "parto": 4248,
      "volar": 4249,
      "prezio": 4250,
      "sansone": 4251,
      "veloci": 4252,
      "rendi": 4253,
      "apparecchia": 4254,
      "##cera": 4255,
      "supre": 4256,
      "cil": 4257,
      "merze": 4258,
      "infermo": 4259,
      "immensa": 4260,
      "correr": 4261,
      "vers": 4262,
      "##alo": 4263,
      "suolo": 4264,
      "vecchie": 4265,
      "morgante": 4266,
      "toa": 4267,
      "nuovi": 4268,
      "strana": 4269,
      "pronte": 4270,
      "sfavi": 4271,
      "##cello": 4272,
      "##cede": 4273,
      "causa": 4274,
      "trombe": 4275,
      "freme": 4276,
      "sospirando": 4277,
      "jje": 4278,
      "##dero": 4279,
      "alli": 4280,
      "volesse": 4281,
      "pregar": 4282,
      "doppio": 4283,
      "carta": 4284,
      "pesci": 4285,
      "vermiglio": 4286,
      "cera": 4287,
      "##bel": 4288,
      "##nos": 4289,
      "##alto": 4290,
      "facendo": 4291,
      "disco": 4292,
      "bien": 4293,
      "cher": 4294,
      "alzo": 4295,
      "numi": 4296,
      "##ttendo": 4297,
      "##vola": 4298,
      "condur": 4299,
      "plus": 4300,
      "rara": 4301,
      "##dante": 4302,
      "anna": 4303,
      "comun": 4304,
      "paro": 4305,
      "tempre": 4306,
      "##gie": 4307,
      "lucenti": 4308,
      "##pace": 4309,
      "giuoco": 4310,
      "altiero": 4311,
      "figliuolo": 4312,
      "vaghezza": 4313,
      "sbigotti": 4314,
      "!)": 4315,
      "custo": 4316,
      "ched": 4317,
      "##omi": 4318,
      "riten": 4319,
      "vece": 4320,
      "possi": 4321,
      "##ssime": 4322,
      "moto": 4323,
      "rispetto": 4324,
      "servire": 4325,
      "sinistra": 4326,
      "pruova": 4327,
      "abito": 4328,
      "ram": 4329,
      "vaglia": 4330,
      "##duti": 4331,
      "studi": 4332,
      "servitu": 4333,
      "doma": 4334,
      "universo": 4335,
      "accoglie": 4336,
      "##tun": 4337,
      "cival": 4338,
      "pour": 4339,
      "onne": 4340,
      "impi": 4341,
      "tenta": 4342,
      "epp": 4343,
      "magno": 4344,
      "##ggie": 4345,
      "##irl": 4346,
      "fresco": 4347,
      "gridi": 4348,
      "divine": 4349,
      "sanguin": 4350,
      "squar": 4351,
      "oce": 4352,
      "ozio": 4353,
      "##esce": 4354,
      "marmi": 4355,
      "biondo": 4356,
      "fosti": 4357,
      "partire": 4358,
      "tempra": 4359,
      "compar": 4360,
      "scampo": 4361,
      "ava": 4362,
      "ampio": 4363,
      "gano": 4364,
      "gusto": 4365,
      "sino": 4366,
      "##erva": 4367,
      "##ensa": 4368,
      "perco": 4369,
      "ville": 4370,
      "corto": 4371,
      "venuta": 4372,
      "udire": 4373,
      "havria": 4374,
      "strinse": 4375,
      "percuote": 4376,
      "parli": 4377,
      "liti": 4378,
      "onni": 4379,
      "bassa": 4380,
      "sdegni": 4381,
      "palagio": 4382,
      "cimi": 4383,
      "stassi": 4384,
      "nullo": 4385,
      "cangi": 4386,
      "disposto": 4387,
      "geme": 4388,
      "beati": 4389,
      "diavol": 4390,
      "atri": 4391,
      "otto": 4392,
      "oit": 4393,
      "sogni": 4394,
      "lodar": 4395,
      "darmi": 4396,
      "acquistar": 4397,
      "ignudo": 4398,
      "desider": 4399,
      "colonna": 4400,
      "##tere": 4401,
      "##enno": 4402,
      "fieri": 4403,
      "gigli": 4404,
      "noti": 4405,
      "pegno": 4406,
      "piagge": 4407,
      "desiri": 4408,
      "##gner": 4409,
      "catene": 4410,
      "copia": 4411,
      "allhor": 4412,
      "cure": 4413,
      "capitanio": 4414,
      "trenta": 4415,
      "dde": 4416,
      "dosso": 4417,
      "ene": 4418,
      "##hia": 4419,
      "leve": 4420,
      "propri": 4421,
      "appari": 4422,
      "##store": 4423,
      "sparso": 4424,
      "sguardi": 4425,
      "##mata": 4426,
      "corro": 4427,
      "##eris": 4428,
      "nuda": 4429,
      "speranze": 4430,
      "destrieri": 4431,
      "consigli": 4432,
      "##olli": 4433,
      "volando": 4434,
      "saggia": 4435,
      "##dur": 4436,
      "finalmente": 4437,
      "tagli": 4438,
      "potessi": 4439,
      "volete": 4440,
      "tranquilla": 4441,
      "##bu": 4442,
      "##lina": 4443,
      "ref": 4444,
      "errando": 4445,
      "##due": 4446,
      "##conde": 4447,
      "##ccie": 4448,
      "pareva": 4449,
      "discese": 4450,
      "ao": 4451,
      "ordin": 4452,
      "##turi": 4453,
      "avrai": 4454,
      "cangiar": 4455,
      "##mant": 4456,
      "tocchi": 4457,
      "vorria": 4458,
      "brutto": 4459,
      "eli": 4460,
      "ostro": 4461,
      "umor": 4462,
      "##mosa": 4463,
      "##ffre": 4464,
      "alloro": 4465,
      "minerva": 4466,
      "placi": 4467,
      "combatte": 4468,
      "arresta": 4469,
      "atterra": 4470,
      "gaudio": 4471,
      "ster": 4472,
      "dec": 4473,
      "incli": 4474,
      "trovato": 4475,
      "eccell": 4476,
      "occu": 4477,
      "occul": 4478,
      "mma": 4479,
      "rosse": 4480,
      "##estri": 4481,
      "sempi": 4482,
      "negro": 4483,
      "rivo": 4484,
      "##dute": 4485,
      "sprezza": 4486,
      "##our": 4487,
      "rim": 4488,
      "riv": 4489,
      "scogli": 4490,
      "qe": 4491,
      "inta": 4492,
      "##unse": 4493,
      "ricciar": 4494,
      "nous": 4495,
      "##renda": 4496,
      "tende": 4497,
      "exe": 4498,
      "aquila": 4499,
      "dito": 4500,
      "vetro": 4501,
      "infor": 4502,
      "ripos": 4503,
      "gentilezza": 4504,
      "chavea": 4505,
      "uopo": 4506,
      "esi": 4507,
      "gor": 4508,
      "##moso": 4509,
      "spesse": 4510,
      "pastore": 4511,
      "gius": 4512,
      "aspri": 4513,
      "prigione": 4514,
      "fingal": 4515,
      "glial": 4516,
      "terza": 4517,
      "purpure": 4518,
      "avien": 4519,
      "edi": 4520,
      "lago": 4521,
      "spande": 4522,
      "tiran": 4523,
      "dover": 4524,
      "salma": 4525,
      "compagna": 4526,
      "palazzo": 4527,
      "##ombar": 4528,
      "mandato": 4529,
      "potrei": 4530,
      "errante": 4531,
      "cape": 4532,
      "##mose": 4533,
      "carmi": 4534,
      "tromba": 4535,
      "afferra": 4536,
      "bro": 4537,
      "his": 4538,
      "detta": 4539,
      "spenta": 4540,
      "liqu": 4541,
      "fragi": 4542,
      "affati": 4543,
      "sgombra": 4544,
      "cessa": 4545,
      "tela": 4546,
      "##bar": 4547,
      "versa": 4548,
      "ine": 4549,
      "inz": 4550,
      "maggio": 4551,
      "arda": 4552,
      "lira": 4553,
      "vener": 4554,
      "suave": 4555,
      "beltade": 4556,
      "ascoso": 4557,
      "sciolta": 4558,
      "##ttuto": 4559,
      "mesi": 4560,
      "##erte": 4561,
      "ripre": 4562,
      "sens": 4563,
      "lunghe": 4564,
      "##venne": 4565,
      "intenti": 4566,
      "greci": 4567,
      "facean": 4568,
      "altere": 4569,
      "ingegni": 4570,
      "usar": 4571,
      "spinto": 4572,
      "fredda": 4573,
      "fanciullo": 4574,
      "fili": 4575,
      "volendo": 4576,
      "dotto": 4577,
      "cieli": 4578,
      "##ccato": 4579,
      "seguito": 4580,
      "aprile": 4581,
      "ralle": 4582,
      "chri": 4583,
      "##olar": 4584,
      "conse": 4585,
      "##cher": 4586,
      "cadere": 4587,
      "##erir": 4588,
      "provo": 4589,
      "porse": 4590,
      "##ttere": 4591,
      "##ssar": 4592,
      "sparsi": 4593,
      "valoroso": 4594,
      "alberga": 4595,
      "spinse": 4596,
      "venisse": 4597,
      "risplende": 4598,
      "ricciardetto": 4599,
      "nello": 4600,
      "##tiene": 4601,
      "sed": 4602,
      "palme": 4603,
      "##fisa": 4604,
      "glorio": 4605,
      "cieca": 4606,
      "iniqua": 4607,
      "pallido": 4608,
      "travaglia": 4609,
      "glialtri": 4610,
      "fle": 4611,
      "degne": 4612,
      "maga": 4613,
      "vite": 4614,
      "costa": 4615,
      "ascose": 4616,
      "doppo": 4617,
      "##rene": 4618,
      "sorelle": 4619,
      "sdegna": 4620,
      "drizza": 4621,
      "estinto": 4622,
      "ggiu": 4623,
      "ost": 4624,
      "ton": 4625,
      "lamen": 4626,
      "mili": 4627,
      "rad": 4628,
      "asper": 4629,
      "doglie": 4630,
      "belis": 4631,
      "quiete": 4632,
      "estreme": 4633,
      "cristian": 4634,
      "brun": 4635,
      "governa": 4636,
      "marfisa": 4637,
      "certe": 4638,
      "rotte": 4639,
      "rugia": 4640,
      "offi": 4641,
      "ritrovo": 4642,
      "lavor": 4643,
      "debbo": 4644,
      "bron": 4645,
      "iu": 4646,
      "lena": 4647,
      "##ensi": 4648,
      "perso": 4649,
      "consente": 4650,
      "spine": 4651,
      "gitta": 4652,
      "sona": 4653,
      "manten": 4654,
      "##pote": 4655,
      "piega": 4656,
      "stuol": 4657,
      "sembianti": 4658,
      "ignor": 4659,
      "debba": 4660,
      "gesu": 4661,
      "debil": 4662,
      "amm": 4663,
      "splendi": 4664,
      "insin": 4665,
      "farai": 4666,
      "eccelso": 4667,
      "sansonetto": 4668,
      "belisario": 4669,
      "polo": 4670,
      "leone": 4671,
      "angu": 4672,
      "##cis": 4673,
      "foro": 4674,
      "foresta": 4675,
      "grant": 4676,
      "talora": 4677,
      "rinchi": 4678,
      "lasciai": 4679,
      "brevi": 4680,
      "piccol": 4681,
      "bbi": 4682,
      "dente": 4683,
      "##gle": 4684,
      "arca": 4685,
      "##orea": 4686,
      "avari": 4687,
      "vincer": 4688,
      "ardendo": 4689,
      "gambe": 4690,
      "honesta": 4691,
      "insegne": 4692,
      "interno": 4693,
      "messaggi": 4694,
      "sventura": 4695,
      "##vando": 4696,
      "##uit": 4697,
      "colpe": 4698,
      "tir": 4699,
      "dolenti": 4700,
      "deserto": 4701,
      "##cciando": 4702,
      "giuro": 4703,
      "##mpie": 4704,
      "gagliar": 4705,
      "singu": 4706,
      "ingiuria": 4707,
      "##bano": 4708,
      "##mes": 4709,
      "mil": 4710,
      "##ggo": 4711,
      "arene": 4712,
      "asia": 4713,
      "trai": 4714,
      "siamo": 4715,
      "##cciato": 4716,
      "musa": 4717,
      "tenuto": 4718,
      "scrive": 4719,
      "lucido": 4720,
      "principi": 4721,
      "pompa": 4722,
      "##cana": 4723,
      "sten": 4724,
      "def": 4725,
      "##gger": 4726,
      "vende": 4727,
      "spaven": 4728,
      "ferrau": 4729,
      "andre": 4730,
      "colto": 4731,
      "elli": 4732,
      "sangui": 4733,
      "tolle": 4734,
      "saran": 4735,
      "tradimento": 4736,
      "concesso": 4737,
      "subitamente": 4738,
      "fanti": 4739,
      "lh": 4740,
      "##rian": 4741,
      "rie": 4742,
      "bench": 4743,
      "termine": 4744,
      "trem": 4745,
      "intendo": 4746,
      "uscito": 4747,
      "crudelta": 4748,
      "sciolse": 4749,
      "varchi": 4750,
      "consuma": 4751,
      "dimanda": 4752,
      "eguale": 4753,
      "securo": 4754,
      "ochi": 4755,
      "##mene": 4756,
      "##gnoso": 4757,
      "legni": 4758,
      "fatal": 4759,
      "onesto": 4760,
      "disia": 4761,
      "nodi": 4762,
      "pietre": 4763,
      "salda": 4764,
      "allegro": 4765,
      "intera": 4766,
      "varia": 4767,
      "davante": 4768,
      "potrai": 4769,
      "magnanimo": 4770,
      "cli": 4771,
      "vere": 4772,
      "sulle": 4773,
      "tese": 4774,
      "mane": 4775,
      "faria": 4776,
      "impeto": 4777,
      "signoria": 4778,
      "chiamando": 4779,
      "eterne": 4780,
      "somi": 4781,
      "andaro": 4782,
      "ghirl": 4783,
      "campagne": 4784,
      "osser": 4785,
      "##drone": 4786,
      "feste": 4787,
      "odia": 4788,
      "##poli": 4789,
      "##lare": 4790,
      "sponda": 4791,
      "poggi": 4792,
      "addosso": 4793,
      "desto": 4794,
      "talento": 4795,
      "rusc": 4796,
      "foglia": 4797,
      "ricorda": 4798,
      "trasfor": 4799,
      "nocchier": 4800,
      "cqui": 4801,
      "sn": 4802,
      "##vente": 4803,
      "veduta": 4804,
      "voli": 4805,
      "talvolta": 4806,
      "##rent": 4807,
      "finche": 4808,
      "riposa": 4809,
      "ferire": 4810,
      "altiera": 4811,
      "umane": 4812,
      "raccon": 4813,
      "dando": 4814,
      "deb": 4815,
      "colse": 4816,
      "torr": 4817,
      "##tende": 4818,
      "fresche": 4819,
      "dardi": 4820,
      "goder": 4821,
      "franchi": 4822,
      "schermo": 4823,
      "oprar": 4824,
      "cenno": 4825,
      "ingrata": 4826,
      "aia": 4827,
      "##tito": 4828,
      "dep": 4829,
      "speri": 4830,
      "##viso": 4831,
      "##versa": 4832,
      "menar": 4833,
      "opera": 4834,
      "ornato": 4835,
      "cristiano": 4836,
      "gionse": 4837,
      "letizia": 4838,
      "corsamonte": 4839,
      "##orto": 4840,
      "invia": 4841,
      "satis": 4842,
      "avan": 4843,
      "destina": 4844,
      "cupido": 4845,
      "glorie": 4846,
      "grif": 4847,
      "abbian": 4848,
      "promesso": 4849,
      "africa": 4850,
      "affretta": 4851,
      "deri": 4852,
      "suen": 4853,
      "visse": 4854,
      "volti": 4855,
      "aste": 4856,
      "ponto": 4857,
      "ponti": 4858,
      "franca": 4859,
      "giovani": 4860,
      "renda": 4861,
      "teucri": 4862,
      "resi": 4863,
      "squi": 4864,
      "nett": 4865,
      "casto": 4866,
      "##vile": 4867,
      "soglio": 4868,
      "venni": 4869,
      "griph": 4870,
      "uscire": 4871,
      "doman": 4872,
      "##turno": 4873,
      "umani": 4874,
      "nasconde": 4875,
      "sarei": 4876,
      "querele": 4877,
      "biasmo": 4878,
      "incendio": 4879,
      "fianchi": 4880,
      "##gano": 4881,
      "sieno": 4882,
      "savio": 4883,
      "notti": 4884,
      "fei": 4885,
      "coda": 4886,
      "monno": 4887,
      "mossa": 4888,
      "##tton": 4889,
      "taglio": 4890,
      "discende": 4891,
      "difende": 4892,
      "uccide": 4893,
      "smarrita": 4894,
      "azzur": 4895,
      "ubi": 4896,
      "volger": 4897,
      "aduna": 4898,
      "affetti": 4899,
      "folta": 4900,
      "narrar": 4901,
      "estrema": 4902,
      "##terra": 4903,
      "##ula": 4904,
      "##para": 4905,
      "alora": 4906,
      "qualor": 4907,
      "##diamo": 4908,
      "##andosi": 4909,
      "ritorni": 4910,
      "raccolto": 4911,
      "circonda": 4912,
      "quarto": 4913,
      "oppresso": 4914,
      "flag": 4915,
      "ago": 4916,
      "sir": 4917,
      "confi": 4918,
      "fidi": 4919,
      "lidi": 4920,
      "prodi": 4921,
      "accre": 4922,
      "ulisse": 4923,
      "cun": 4924,
      "dive": 4925,
      "spari": 4926,
      "facc": 4927,
      "addi": 4928,
      "pietro": 4929,
      "gradita": 4930,
      "frati": 4931,
      "affanna": 4932,
      "sacre": 4933,
      "promesse": 4934,
      "ona": 4935,
      "inanti": 4936,
      "vider": 4937,
      "netto": 4938,
      "angi": 4939,
      "paga": 4940,
      "##reno": 4941,
      "muore": 4942,
      "benedetto": 4943,
      "abandona": 4944,
      "pronti": 4945,
      "promette": 4946,
      "dispie": 4947,
      "ppa": 4948,
      "arsi": 4949,
      "forsi": 4950,
      "tie": 4951,
      "##gho": 4952,
      "##bergo": 4953,
      "superbia": 4954,
      "consola": 4955,
      "carita": 4956,
      "levante": 4957,
      "manifesto": 4958,
      "volentier": 4959,
      "diverso": 4960,
      "lampi": 4961,
      "##gigi": 4962,
      "proca": 4963,
      "pecto": 4964,
      "piaggia": 4965,
      "tocco": 4966,
      "contesa": 4967,
      "fuggiti": 4968,
      "scettro": 4969,
      "##mula": 4970,
      "francesco": 4971,
      "bbo": 4972,
      "ut": 4973,
      "vostr": 4974,
      "coraggio": 4975,
      "##aria": 4976,
      "indus": 4977,
      "vili": 4978,
      "camb": 4979,
      "potenza": 4980,
      "prote": 4981,
      "fiate": 4982,
      "scorto": 4983,
      "havendo": 4984,
      "grossa": 4985,
      "chino": 4986,
      "piglio": 4987,
      "##dis": 4988,
      "lion": 4989,
      "pupi": 4990,
      "orto": 4991,
      "##ffe": 4992,
      "marche": 4993,
      "salta": 4994,
      "##senta": 4995,
      "scuo": 4996,
      "vario": 4997,
      "acquisto": 4998,
      "rimaso": 4999,
      "adombra": 5000,
      "rollant": 5001,
      "les": 5002,
      "##coso": 5003,
      "##gole": 5004,
      "##enn": 5005,
      "scer": 5006,
      "tacito": 5007,
      "vantaggio": 5008,
      "idio": 5009,
      "##ume": 5010,
      "##peri": 5011,
      "##ois": 5012,
      "rigi": 5013,
      "fila": 5014,
      "chiamato": 5015,
      "pagani": 5016,
      "vestir": 5017,
      "luoghi": 5018,
      "huomini": 5019,
      "giudicio": 5020,
      "homai": 5021,
      "?!": 5022,
      "lenti": 5023,
      "##lino": 5024,
      "macchia": 5025,
      "villa": 5026,
      "prete": 5027,
      "fort": 5028,
      "giacque": 5029,
      "serve": 5030,
      "bionde": 5031,
      "stessi": 5032,
      "schiva": 5033,
      "profonda": 5034,
      "principe": 5035,
      "ulivier": 5036,
      "invola": 5037,
      "villano": 5038,
      "guancia": 5039,
      "ggni": 5040,
      "hin": 5041,
      "##ue": 5042,
      "##gier": 5043,
      "scura": 5044,
      "avuto": 5045,
      "allhora": 5046,
      "##dura": 5047,
      "rota": 5048,
      "##voli": 5049,
      "scorse": 5050,
      "scrivo": 5051,
      "effetti": 5052,
      "credenza": 5053,
      "agu": 5054,
      "##fra": 5055,
      "dil": 5056,
      "##into": 5057,
      "perduta": 5058,
      "dette": 5059,
      "##omo": 5060,
      "pues": 5061,
      "rever": 5062,
      "cusi": 5063,
      "molesta": 5064,
      "mostr": 5065,
      "mutar": 5066,
      "rispon": 5067,
      "aureo": 5068,
      "aggia": 5069,
      "ddio": 5070,
      "sari": 5071,
      "##mus": 5072,
      "##venti": 5073,
      "##deri": 5074,
      "vigore": 5075,
      "fata": 5076,
      "cordoglio": 5077,
      "veglio": 5078,
      "poggia": 5079,
      "##quie": 5080,
      "maniera": 5081,
      "facesse": 5082,
      "llui": 5083,
      "perfetta": 5084,
      "bbe": 5085,
      "##pore": 5086,
      "##desse": 5087,
      "##fal": 5088,
      "quanno": 5089,
      "pera": 5090,
      "mastro": 5091,
      "assa": 5092,
      "##orata": 5093,
      "bis": 5094,
      "risu": 5095,
      "auro": 5096,
      "sentire": 5097,
      "sommer": 5098,
      "gonna": 5099,
      "##ffredo": 5100,
      "nere": 5101,
      "patre": 5102,
      "solin": 5103,
      "reti": 5104,
      "null": 5105,
      "##jji": 5106,
      "traditore": 5107,
      "aurea": 5108,
      "prudente": 5109,
      "mattina": 5110,
      "persi": 5111,
      "viola": 5112,
      "riede": 5113,
      "amba": 5114,
      "stai": 5115,
      "novello": 5116,
      "augusto": 5117,
      "gioveni": 5118,
      "semplice": 5119,
      "atra": 5120,
      "gg": 5121,
      "##ule": 5122,
      "tum": 5123,
      "##pita": 5124,
      "senten": 5125,
      "fea": 5126,
      "accesi": 5127,
      "piana": 5128,
      "favore": 5129,
      "percosso": 5130,
      "crini": 5131,
      "orror": 5132,
      "europa": 5133,
      "nes": 5134,
      "##mito": 5135,
      "amari": 5136,
      "avro": 5137,
      "traverso": 5138,
      "toro": 5139,
      "torri": 5140,
      "sana": 5141,
      "doloroso": 5142,
      "intendi": 5143,
      "levato": 5144,
      "vivendo": 5145,
      "generoso": 5146,
      "istesso": 5147,
      "aggio": 5148,
      "feni": 5149,
      "negle": 5150,
      "saggi": 5151,
      "beltate": 5152,
      "tremo": 5153,
      "fontana": 5154,
      "havra": 5155,
      "difetto": 5156,
      "interro": 5157,
      "lustri": 5158,
      "sfer": 5159,
      "ricchezza": 5160,
      "segnor": 5161,
      "##misura": 5162,
      "osa": 5163,
      "##orio": 5164,
      "fabri": 5165,
      "mea": 5166,
      "amma": 5167,
      "pende": 5168,
      "copri": 5169,
      "lutto": 5170,
      "appella": 5171,
      "brami": 5172,
      "goffredo": 5173,
      "cammino": 5174,
      "migliore": 5175,
      "sapete": 5176,
      "disdegno": 5177,
      "egitto": 5178,
      "##lone": 5179,
      "##elon": 5180,
      "riguardo": 5181,
      "fura": 5182,
      "parna": 5183,
      "accusi": 5184,
      "numero": 5185,
      "alcina": 5186,
      "##fici": 5187,
      "soma": 5188,
      "solamente": 5189,
      "fassi": 5190,
      "avre": 5191,
      "natio": 5192,
      "grati": 5193,
      "tempesto": 5194,
      "superbi": 5195,
      "bbene": 5196,
      "scherni": 5197,
      "ricchezze": 5198,
      "serpente": 5199,
      "verita": 5200,
      "comando": 5201,
      "metter": 5202,
      "sapi": 5203,
      "rasse": 5204,
      "bur": 5205,
      "guardando": 5206,
      "conosci": 5207,
      "apresso": 5208,
      "scinti": 5209,
      "smon": 5210,
      "##anne": 5211,
      "dimor": 5212,
      "contar": 5213,
      "vit": 5214,
      "grasso": 5215,
      "dentr": 5216,
      "contrade": 5217,
      "lingue": 5218,
      "orecchio": 5219,
      "inchiostro": 5220,
      "##dori": 5221,
      "##sei": 5222,
      "inti": 5223,
      "##tion": 5224,
      "fien": 5225,
      "adon": 5226,
      "ruppe": 5227,
      "cale": 5228,
      "ripor": 5229,
      "cinge": 5230,
      "oscuri": 5231,
      "eletta": 5232,
      "tronchi": 5233,
      "assedio": 5234,
      "ettorre": 5235,
      "mento": 5236,
      "##tai": 5237,
      "incor": 5238,
      "##ris": 5239,
      "sii": 5240,
      "soglia": 5241,
      "scale": 5242,
      "##geo": 5243,
      "bacco": 5244,
      "seguitar": 5245,
      "accorta": 5246,
      "adopra": 5247,
      "##rer": 5248,
      "##teri": 5249,
      "##gera": 5250,
      "sicche": 5251,
      "##rante": 5252,
      "parente": 5253,
      "##glione": 5254,
      "orma": 5255,
      "penn": 5256,
      "cinta": 5257,
      "intenda": 5258,
      "giardin": 5259,
      "contrari": 5260,
      "cra": 5261,
      "usi": 5262,
      "##nia": 5263,
      "##onar": 5264,
      "nega": 5265,
      "rido": 5266,
      "cas": 5267,
      "doppia": 5268,
      "sentia": 5269,
      "##zzio": 5270,
      "allon": 5271,
      "infino": 5272,
      "impia": 5273,
      "aiuta": 5274,
      "virtude": 5275,
      "scorte": 5276,
      "atlante": 5277,
      "usata": 5278,
      "prigioni": 5279,
      "erranti": 5280,
      "##pu": 5281,
      "##zando": 5282,
      "##anca": 5283,
      "##enze": 5284,
      "##ellon": 5285,
      "girar": 5286,
      "vengo": 5287,
      "piac": 5288,
      "ristor": 5289,
      "autre": 5290,
      "gridar": 5291,
      "lasciate": 5292,
      "ahime": 5293,
      "narra": 5294,
      "marchese": 5295,
      "vvi": 5296,
      "condusse": 5297,
      "mangia": 5298,
      "crebbe": 5299,
      "sostenne": 5300,
      "ascosa": 5301,
      "compia": 5302,
      "scempio": 5303,
      "scioglie": 5304,
      "sba": 5305,
      "##pero": 5306,
      "##erti": 5307,
      "lai": 5308,
      "arro": 5309,
      "desse": 5310,
      "trovare": 5311,
      "impara": 5312,
      "rumor": 5313,
      "stesse": 5314,
      "spese": 5315,
      "portato": 5316,
      "cominci": 5317,
      "scala": 5318,
      "##angue": 5319,
      "conti": 5320,
      "pis": 5321,
      "maglia": 5322,
      "lic": 5323,
      "poeti": 5324,
      "tratti": 5325,
      "lumin": 5326,
      "barca": 5327,
      "nascer": 5328,
      "divisa": 5329,
      "arbori": 5330,
      "famosa": 5331,
      "presenza": 5332,
      "festi": 5333,
      "##eve": 5334,
      "caduto": 5335,
      "futuro": 5336,
      "padron": 5337,
      "sospe": 5338,
      "chiave": 5339,
      "hormai": 5340,
      "uscita": 5341,
      "vermiglia": 5342,
      "sgomb": 5343,
      "soffrir": 5344,
      "desiderio": 5345,
      "enea": 5346,
      "oggetto": 5347,
      "##vieri": 5348,
      "fuss": 5349,
      "sonar": 5350,
      "cardin": 5351,
      "##manco": 5352,
      "fortezza": 5353,
      "eva": 5354,
      "toi": 5355,
      "##ggne": 5356,
      "##gnare": 5357,
      "rica": 5358,
      "parenti": 5359,
      "volsi": 5360,
      "lodo": 5361,
      "sapre": 5362,
      "adorni": 5363,
      "tremar": 5364,
      "niun": 5365,
      "chiavi": 5366,
      "romano": 5367,
      "orecchi": 5368,
      "conviensi": 5369,
      "ita": 5370,
      "##tanza": 5371,
      "##desi": 5372,
      "dirai": 5373,
      "lampo": 5374,
      "viol": 5375,
      "dami": 5376,
      "##metto": 5377,
      "veggi": 5378,
      "reina": 5379,
      "mandi": 5380,
      "mansu": 5381,
      "cantare": 5382,
      "giunti": 5383,
      "vedro": 5384,
      "invidio": 5385,
      "fiorita": 5386,
      "pensoso": 5387,
      "aggira": 5388,
      "nimica": 5389,
      "pesce": 5390,
      "riceve": 5391,
      "ist": 5392,
      "stro": 5393,
      "lach": 5394,
      "argu": 5395,
      "mezza": 5396,
      "giva": 5397,
      "mova": 5398,
      "caldi": 5399,
      "##cul": 5400,
      "stilla": 5401,
      "rivolse": 5402,
      "terrena": 5403,
      "pompe": 5404,
      "secreto": 5405,
      "magior": 5406,
      "trascor": 5407,
      "obi": 5408,
      "##ansi": 5409,
      "lampe": 5410,
      "vigi": 5411,
      "poche": 5412,
      "disar": 5413,
      "durin": 5414,
      "##zioni": 5415,
      "##gha": 5416,
      "seren": 5417,
      "vinti": 5418,
      "sentito": 5419,
      "ardimento": 5420,
      "peregrin": 5421,
      "occidente": 5422,
      "tenebroso": 5423,
      "gine": 5424,
      "tru": 5425,
      "##uco": 5426,
      "##ja": 5427,
      "##lica": 5428,
      "pigro": 5429,
      "cazzo": 5430,
      "##mila": 5431,
      "##glier": 5432,
      "gioi": 5433,
      "tena": 5434,
      "##endere": 5435,
      "vieta": 5436,
      "pronta": 5437,
      "malagigi": 5438,
      "barbari": 5439,
      "oda": 5440,
      "cami": 5441,
      "patri": 5442,
      "amiche": 5443,
      "accorse": 5444,
      "veniva": 5445,
      "nessuno": 5446,
      "ccome": 5447,
      "ricetto": 5448,
      "libroe": 5449,
      "##tente": 5450,
      "spenti": 5451,
      "cors": 5452,
      "cime": 5453,
      "potro": 5454,
      "onte": 5455,
      "dua": 5456,
      "montal": 5457,
      "farti": 5458,
      "giunga": 5459,
      "faceva": 5460,
      "disparte": 5461,
      "vanne": 5462,
      "augello": 5463,
      "meravi": 5464,
      "plebe": 5465,
      "bere": 5466,
      "rare": 5467,
      "some": 5468,
      "##cqua": 5469,
      "lau": 5470,
      "volga": 5471,
      "tramon": 5472,
      "feo": 5473,
      "talhor": 5474,
      "##tarmi": 5475,
      "amate": 5476,
      "pastori": 5477,
      "vivere": 5478,
      "riguarda": 5479,
      "pesa": 5480,
      "udendo": 5481,
      "##ttr": 5482,
      "segna": 5483,
      "secura": 5484,
      "materia": 5485,
      "vegno": 5486,
      "morendo": 5487,
      "prede": 5488,
      "##ffo": 5489,
      "##erire": 5490,
      "bassi": 5491,
      "cres": 5492,
      "rote": 5493,
      "tenga": 5494,
      "fonda": 5495,
      "sconsola": 5496,
      "giardino": 5497,
      "ebber": 5498,
      "cus": 5499,
      "uscia": 5500,
      "intre": 5501,
      "sun": 5502,
      "faccio": 5503,
      "##casso": 5504,
      "quaggiu": 5505,
      "fermar": 5506,
      "hoo": 5507,
      "miracol": 5508,
      "scriva": 5509,
      "errori": 5510,
      "perigli": 5511,
      "leggiadri": 5512,
      "raccom": 5513,
      "imago": 5514,
      "terribil": 5515,
      "cena": 5516,
      "fella": 5517,
      "meli": 5518,
      "messi": 5519,
      "##tuno": 5520,
      "##lmente": 5521,
      "mist": 5522,
      "##ppre": 5523,
      "esta": 5524,
      "affer": 5525,
      "##fatto": 5526,
      "scalda": 5527,
      "zuffa": 5528,
      "ampia": 5529,
      "geli": 5530,
      "pper": 5531,
      "peli": 5532,
      "riser": 5533,
      "parere": 5534,
      "##tudine": 5535,
      "ognhor": 5536,
      "avara": 5537,
      "peni": 5538,
      "accolto": 5539,
      "##zzando": 5540,
      "stagione": 5541,
      "gioie": 5542,
      "finir": 5543,
      "false": 5544,
      "falsi": 5545,
      "scopre": 5546,
      "scrisse": 5547,
      "selvaggio": 5548,
      "fende": 5549,
      "##pante": 5550,
      "##arla": 5551,
      "cond": 5552,
      "##rana": 5553,
      "pater": 5554,
      "adoro": 5555,
      "stampa": 5556,
      "credendo": 5557,
      "mover": 5558,
      "bue": 5559,
      "ruine": 5560,
      "##mana": 5561,
      "sovrano": 5562,
      "oscure": 5563,
      "garzon": 5564,
      "promessa": 5565,
      "nno": 5566,
      "otti": 5567,
      "##ban": 5568,
      "##ecto": 5569,
      "siano": 5570,
      "consenti": 5571,
      "armenti": 5572,
      "metta": 5573,
      "pazzo": 5574,
      "copre": 5575,
      "peggi": 5576,
      "mole": 5577,
      "malede": 5578,
      "tremante": 5579,
      "fosser": 5580,
      "merti": 5581,
      "balia": 5582,
      "tornato": 5583,
      "agghia": 5584,
      "montagna": 5585,
      "humana": 5586,
      "angoscio": 5587,
      "ammira": 5588,
      "latino": 5589,
      "poggio": 5590,
      "colmo": 5591,
      "elo": 5592,
      "pec": 5593,
      "mod": 5594,
      "tenendo": 5595,
      "dargli": 5596,
      "scorre": 5597,
      "impetu": 5598,
      "riconos": 5599,
      "fragil": 5600,
      "vora": 5601,
      "dou": 5602,
      "##cona": 5603,
      "valse": 5604,
      "superno": 5605,
      "parean": 5606,
      "animali": 5607,
      "spiace": 5608,
      "svel": 5609,
      "serpenti": 5610,
      "tom": 5611,
      "##celli": 5612,
      "##gino": 5613,
      "tuono": 5614,
      "ricchi": 5615,
      "pul": 5616,
      "mangi": 5617,
      "grav": 5618,
      "motto": 5619,
      "greve": 5620,
      "confuso": 5621,
      "procella": 5622,
      "borea": 5623,
      "##les": 5624,
      "paesi": 5625,
      "lite": 5626,
      "preti": 5627,
      "prece": 5628,
      "prezzo": 5629,
      "mancar": 5630,
      "mona": 5631,
      "carca": 5632,
      "##arai": 5633,
      "abbandon": 5634,
      "contese": 5635,
      "mostrava": 5636,
      "argante": 5637,
      "concede": 5638,
      "capelli": 5639,
      "gionto": 5640,
      "innocente": 5641,
      "vanni": 5642,
      "##vina": 5643,
      "##schio": 5644,
      "illu": 5645,
      "matto": 5646,
      "viti": 5647,
      "spalla": 5648,
      "cacciar": 5649,
      "giorna": 5650,
      "femina": 5651,
      "donar": 5652,
      "acce": 5653,
      "fermi": 5654,
      "strazio": 5655,
      "trono": 5656,
      "aquilante": 5657,
      "sproni": 5658,
      "rolland": 5659,
      "vivande": 5660,
      "casc": 5661,
      "aspetti": 5662,
      "vorra": 5663,
      "accordo": 5664,
      "dorso": 5665,
      "aperte": 5666,
      "venite": 5667,
      "gala": 5668,
      "iniquo": 5669,
      "grotta": 5670,
      "lassu": 5671,
      "incarco": 5672,
      "fina": 5673,
      "pina": 5674,
      "pela": 5675,
      "##tica": 5676,
      "lava": 5677,
      "commo": 5678,
      "corone": 5679,
      "temendo": 5680,
      "avrei": 5681,
      "dur": 5682,
      "appunto": 5683,
      "tacer": 5684,
      "calca": 5685,
      "scopri": 5686,
      "andando": 5687,
      "passare": 5688,
      "alfine": 5689,
      "sbar": 5690,
      "mmo": 5691,
      "neri": 5692,
      "##ry": 5693,
      "mazza": 5694,
      "magni": 5695,
      "avrebbe": 5696,
      "propi": 5697,
      "accosta": 5698,
      "ristoro": 5699,
      "trie": 5700,
      "consiglia": 5701,
      "tornando": 5702,
      "ricordo": 5703,
      "repente": 5704,
      "itali": 5705,
      "teste": 5706,
      "##cella": 5707,
      "##rone": 5708,
      "##ons": 5709,
      "debbia": 5710,
      "comune": 5711,
      "sogna": 5712,
      "soggetto": 5713,
      "figu": 5714,
      "puli": 5715,
      "dotta": 5716,
      "sentendo": 5717,
      "calda": 5718,
      "andro": 5719,
      "vicini": 5720,
      "abra": 5721,
      "aggua": 5722,
      "sacripante": 5723,
      "lenta": 5724,
      "rossa": 5725,
      "##mque": 5726,
      "##tico": 5727,
      "seder": 5728,
      "metal": 5729,
      "manna": 5730,
      "##orate": 5731,
      "posti": 5732,
      "bada": 5733,
      "buone": 5734,
      "pianga": 5735,
      "pianeta": 5736,
      "udite": 5737,
      "fiorito": 5738,
      "giovanni": 5739,
      "strane": 5740,
      "conclu": 5741,
      "labbra": 5742,
      "!...": 5743,
      "ggente": 5744,
      "mus": 5745,
      "osso": 5746,
      "rri": 5747,
      "##tanta": 5748,
      "secco": 5749,
      "connos": 5750,
      "##sione": 5751,
      "part": 5752,
      "parra": 5753,
      "pavento": 5754,
      "presti": 5755,
      "prescri": 5756,
      "##pidi": 5757,
      "coppia": 5758,
      "musi": 5759,
      "chiami": 5760,
      "turbi": 5761,
      "condutto": 5762,
      "centro": 5763,
      "veleno": 5764,
      "indugio": 5765,
      "accogli": 5766,
      "fello": 5767,
      "ppo": 5768,
      "##mori": 5769,
      "seta": 5770,
      "passe": 5771,
      "patrio": 5772,
      "reci": 5773,
      "venen": 5774,
      "ferme": 5775,
      "scuro": 5776,
      "schivo": 5777,
      "propio": 5778,
      "attri": 5779,
      "medesma": 5780,
      "occaso": 5781,
      "rro": 5782,
      "##deo": 5783,
      "arbi": 5784,
      "volgendo": 5785,
      "rabb": 5786,
      "lupi": 5787,
      "salire": 5788,
      "messer": 5789,
      "andate": 5790,
      "stanchi": 5791,
      "periglioso": 5792,
      "abisso": 5793,
      "ingiusto": 5794,
      "miseria": 5795,
      "troiani": 5796,
      "fantasia": 5797,
      "idea": 5798,
      "##bella": 5799,
      "##andono": 5800,
      "sito": 5801,
      "##ommi": 5802,
      "filo": 5803,
      "fisse": 5804,
      "regio": 5805,
      "avia": 5806,
      "avvin": 5807,
      "trabo": 5808,
      "procede": 5809,
      "saluto": 5810,
      "gentili": 5811,
      "##berto": 5812,
      "scoper": 5813,
      "ragioni": 5814,
      "gemma": 5815,
      "extre": 5816,
      "dovesse": 5817,
      "drago": 5818,
      "dipinto": 5819,
      "infame": 5820,
      "gioventu": 5821,
      "sepul": 5822,
      "ciaschedun": 5823,
      "raddo": 5824,
      "parnaso": 5825,
      "prendo": 5826,
      "vergin": 5827,
      "##tien": 5828,
      "potuto": 5829,
      "nobili": 5830,
      "torse": 5831,
      "figliuola": 5832,
      "diamante": 5833,
      "parlava": 5834,
      "ttutti": 5835,
      "trionf": 5836,
      "travaglio": 5837,
      "soverchio": 5838,
      "bara": 5839,
      "ito": 5840,
      "tondo": 5841,
      "umore": 5842,
      "##ochi": 5843,
      "##ldo": 5844,
      "sicc": 5845,
      "##sion": 5846,
      "comme": 5847,
      "pargole": 5848,
      "##gati": 5849,
      "##usci": 5850,
      "portare": 5851,
      "piato": 5852,
      "muti": 5853,
      "##dardo": 5854,
      "##endosi": 5855,
      "scaccia": 5856,
      "difese": 5857,
      "rimane": 5858,
      "ddu": 5859,
      "smisura": 5860,
      "##onia": 5861,
      "pijja": 5862,
      "ardea": 5863,
      "padrone": 5864,
      "rado": 5865,
      "##elletti": 5866,
      "##stare": 5867,
      "grecia": 5868,
      "ornata": 5869,
      "sepolto": 5870,
      "sepolcro": 5871,
      "colonne": 5872,
      "atroce": 5873,
      "ambascia": 5874,
      "age": 5875,
      "##gen": 5876,
      "sedea": 5877,
      "caccio": 5878,
      "fusti": 5879,
      "puri": 5880,
      "trae": 5881,
      "cop": 5882,
      "divini": 5883,
      "passati": 5884,
      "umili": 5885,
      "saranno": 5886,
      "unita": 5887,
      "vegga": 5888,
      "onorate": 5889,
      "famosi": 5890,
      "ppoi": 5891,
      "accompagna": 5892,
      "suoni": 5893,
      "deggio": 5894,
      "fatt": 5895,
      "parca": 5896,
      "corni": 5897,
      "vezz": 5898,
      "gielo": 5899,
      "pub": 5900,
      "ornar": 5901,
      "raff": 5902,
      "bacio": 5903,
      "mout": 5904,
      "gote": 5905,
      "passando": 5906,
      "libertade": 5907,
      "##porta": 5908,
      "quercia": 5909,
      "dimostrar": 5910,
      "languir": 5911,
      "improvvi": 5912,
      "improviso": 5913,
      "bandiera": 5914,
      "perpetuo": 5915,
      "api": 5916,
      "##clo": 5917,
      "##tella": 5918,
      "##onno": 5919,
      "racon": 5920,
      "accon": 5921,
      "numer": 5922,
      "rischi": 5923,
      "##estie": 5924,
      "##mena": 5925,
      "ferite": 5926,
      "chiusi": 5927,
      "scema": 5928,
      "leggiadria": 5929,
      "concetto": 5930,
      "china": 5931,
      "digi": 5932,
      "alpe": 5933,
      "antri": 5934,
      "fatale": 5935,
      "poppa": 5936,
      "##giero": 5937,
      "reca": 5938,
      "raccor": 5939,
      "sont": 5940,
      "fronda": 5941,
      "fango": 5942,
      "seguia": 5943,
      "abita": 5944,
      "durindana": 5945,
      "habbi": 5946,
      "addor": 5947,
      "mentr": 5948,
      "##rendi": 5949,
      "tregua": 5950,
      "baldanza": 5951,
      "assali": 5952,
      "capitano": 5953,
      "noma": 5954,
      "rimaner": 5955,
      "vertute": 5956,
      "angoscia": 5957,
      "riluce": 5958,
      "gru": 5959,
      "reno": 5960,
      "##veno": 5961,
      "dicon": 5962,
      "inci": 5963,
      "ladro": 5964,
      "##rica": 5965,
      "semi": 5966,
      "pieni": 5967,
      "suso": 5968,
      "fue": 5969,
      "formi": 5970,
      "posi": 5971,
      "ferri": 5972,
      "##doni": 5973,
      "godi": 5974,
      "invito": 5975,
      "isp": 5976,
      "abbiam": 5977,
      "indegna": 5978,
      "flora": 5979,
      "malvagio": 5980,
      "notturno": 5981,
      "##cola": 5982,
      "##ler": 5983,
      "##xe": 5984,
      "##elmo": 5985,
      "##esser": 5986,
      "povera": 5987,
      "accolse": 5988,
      "tempeste": 5989,
      "superbe": 5990,
      "occulto": 5991,
      "acciar": 5992,
      "##mosi": 5993,
      "##enna": 5994,
      "intri": 5995,
      "tetti": 5996,
      "glie": 5997,
      "pugno": 5998,
      "scosse": 5999,
      "curo": 6000,
      "fiata": 6001,
      "stese": 6002,
      "romp": 6003,
      "poteva": 6004,
      "vivace": 6005,
      "##credi": 6006,
      "ulivieri": 6007,
      "orrore": 6008,
      "rimbomba": 6009,
      "aggrada": 6010,
      "maraviglio": 6011,
      "llei": 6012,
      "ph": 6013,
      "tana": 6014,
      "##cane": 6015,
      "##desti": 6016,
      "##lis": 6017,
      "ridu": 6018,
      "dame": 6019,
      "liqui": 6020,
      "limpi": 6021,
      "orso": 6022,
      "sapra": 6023,
      "penser": 6024,
      "coglie": 6025,
      "mur": 6026,
      "soprav": 6027,
      "tot": 6028,
      "assale": 6029,
      "odore": 6030,
      "chieder": 6031,
      "cesare": 6032,
      "cristallo": 6033,
      "vvoi": 6034,
      "gara": 6035,
      "ses": 6036,
      "##cole": 6037,
      "inverso": 6038,
      "##lie": 6039,
      "preste": 6040,
      "##trici": 6041,
      "addol": 6042,
      "taccia": 6043,
      "pianse": 6044,
      "diece": 6045,
      "fregi": 6046,
      "scorgo": 6047,
      "provato": 6048,
      "saracini": 6049,
      "conobbe": 6050,
      "eu": 6051,
      "pino": 6052,
      "sero": 6053,
      "##cal": 6054,
      "##tant": 6055,
      "dita": 6056,
      "rifi": 6057,
      "giant": 6058,
      "voluto": 6059,
      "nozze": 6060,
      "basse": 6061,
      "##vale": 6062,
      "nipote": 6063,
      "langu": 6064,
      "guido": 6065,
      "disperato": 6066,
      "oppor": 6067,
      "##truo": 6068,
      "infiniti": 6069,
      "assicura": 6070,
      "impetra": 6071,
      "essempio": 6072,
      "grosse": 6073,
      "guance": 6074,
      "esercito": 6075,
      "hos": 6076,
      "nanzi": 6077,
      "zor": 6078,
      "debi": 6079,
      "##cese": 6080,
      "maesta": 6081,
      "medesi": 6082,
      "chiunque": 6083,
      "##chetto": 6084,
      "sazio": 6085,
      "descri": 6086,
      "infe": 6087,
      "humano": 6088,
      "vorre": 6089,
      "##minar": 6090,
      "lagrimar": 6091,
      "spiriti": 6092,
      "pallida": 6093,
      "austro": 6094,
      "!\".": 6095,
      "percote": 6096,
      "abe": 6097,
      "##gnu": 6098,
      "sot": 6099,
      "gitto": 6100,
      "giganti": 6101,
      "orn": 6102,
      "disca": 6103,
      "adria": 6104,
      "menzo": 6105,
      "gradito": 6106,
      "nul": 6107,
      "quij": 6108,
      "##cordia": 6109,
      "scuote": 6110,
      "fiorenza": 6111,
      "respi": 6112,
      "angelico": 6113,
      "infamia": 6114,
      "asciutto": 6115,
      "eppoi": 6116,
      "india": 6117,
      "##gnente": 6118,
      "spente": 6119,
      "paia": 6120,
      "##bbon": 6121,
      "pregando": 6122,
      "addio": 6123,
      "poria": 6124,
      "cana": 6125,
      "toccar": 6126,
      "soletto": 6127,
      "ripar": 6128,
      "instru": 6129,
      "raccolse": 6130,
      "combatter": 6131,
      "arcione": 6132,
      "##ferno": 6133,
      "volentieri": 6134,
      "bandiere": 6135,
      "atride": 6136,
      "bir": 6137,
      "zar": 6138,
      "##dosi": 6139,
      "debito": 6140,
      "anton": 6141,
      "argi": 6142,
      "ligu": 6143,
      "reale": 6144,
      "manchi": 6145,
      "profe": 6146,
      "possenti": 6147,
      "##diam": 6148,
      "romper": 6149,
      "faretra": 6150,
      "beatrice": 6151,
      "unico": 6152,
      "cominciar": 6153,
      "divide": 6154,
      "tesor": 6155,
      "irri": 6156,
      "brutta": 6157,
      "alzando": 6158,
      "giacea": 6159,
      "fenice": 6160,
      "banda": 6161,
      "ritruo": 6162,
      "capre": 6163,
      "compre": 6164,
      "argo": 6165,
      "paterno": 6166,
      "##nese": 6167,
      "farla": 6168,
      "stupi": 6169,
      "unica": 6170,
      "rivolge": 6171,
      "argom": 6172,
      "immortali": 6173,
      "herbe": 6174,
      "altari": 6175,
      "siccome": 6176,
      "busto": 6177,
      "oggni": 6178,
      "lagna": 6179,
      "cigno": 6180,
      "##bis": 6181,
      "dogni": 6182,
      "avorio": 6183,
      "spetta": 6184,
      "urta": 6185,
      "terrestre": 6186,
      "contemplar": 6187,
      "turbar": 6188,
      "sferza": 6189,
      "eloqu": 6190,
      "ae": 6191,
      "ddo": 6192,
      "ssa": 6193,
      "##uca": 6194,
      "ripe": 6195,
      "fiede": 6196,
      "racqui": 6197,
      "adduce": 6198,
      "troppa": 6199,
      "acuto": 6200,
      "##mani": 6201,
      "sordo": 6202,
      "godo": 6203,
      "ponente": 6204,
      "amava": 6205,
      "beate": 6206,
      "commesso": 6207,
      "##ggnore": 6208,
      "ascoltar": 6209,
      "danza": 6210,
      "len": 6211,
      "##umi": 6212,
      "futura": 6213,
      "ordi": 6214,
      "piangi": 6215,
      "stimo": 6216,
      "farei": 6217,
      "rimirar": 6218,
      "erede": 6219,
      "patir": 6220,
      "inamora": 6221,
      "tancredi": 6222,
      "liquor": 6223,
      "bono": 6224,
      "gesti": 6225,
      "telo": 6226,
      "misse": 6227,
      "spelon": 6228,
      "fasce": 6229,
      "metti": 6230,
      "noce": 6231,
      "nocte": 6232,
      "tigre": 6233,
      "sentenza": 6234,
      "voglion": 6235,
      "##versi": 6236,
      "##ghia": 6237,
      "sorti": 6238,
      "naturale": 6239,
      "##tane": 6240,
      "cinse": 6241,
      "##bbie": 6242,
      "ssu": 6243,
      "tinto": 6244,
      "fallir": 6245,
      "guadagno": 6246,
      "quod": 6247,
      "verga": 6248,
      "sudor": 6249,
      "mao": 6250,
      "fist": 6251,
      "fidel": 6252,
      "pugnar": 6253,
      "cresci": 6254,
      "##oletta": 6255,
      "quadr": 6256,
      "strage": 6257,
      "dolorosa": 6258,
      "tronca": 6259,
      "strida": 6260,
      "distese": 6261,
      "thes": 6262,
      "precipi": 6263,
      "oper": 6264,
      "##messo": 6265,
      "##ici": 6266,
      "##lici": 6267,
      "secca": 6268,
      "mago": 6269,
      "fammi": 6270,
      "rag": 6271,
      "veneno": 6272,
      "##erie": 6273,
      "farvi": 6274,
      "accanto": 6275,
      "gioir": 6276,
      "erto": 6277,
      "canuto": 6278,
      "salse": 6279,
      "aiutar": 6280,
      "tenera": 6281,
      "rinno": 6282,
      "romor": 6283,
      "invisi": 6284,
      "pensare": 6285,
      "fugga": 6286,
      "faccian": 6287,
      "incomincio": 6288,
      "convene": 6289,
      "over": 6290,
      "vanti": 6291,
      "##mera": 6292,
      "##tier": 6293,
      "##dei": 6294,
      "rile": 6295,
      "##mplo": 6296,
      "poder": 6297,
      "animi": 6298,
      "speco": 6299,
      "resp": 6300,
      "andra": 6301,
      "conoscer": 6302,
      "danese": 6303,
      "storia": 6304,
      "merito": 6305,
      "membri": 6306,
      "##caro": 6307,
      "##della": 6308,
      "##dello": 6309,
      "vergini": 6310,
      "ritenne": 6311,
      "paci": 6312,
      "avva": 6313,
      "fraude": 6314,
      "romore": 6315,
      "potete": 6316,
      "aveano": 6317,
      "fortunato": 6318,
      "cquanno": 6319,
      "ignuda": 6320,
      "contende": 6321,
      "smarrito": 6322,
      "damig": 6323,
      "agio": 6324,
      "oso": 6325,
      "##usc": 6326,
      "innal": 6327,
      "aless": 6328,
      "##esia": 6329,
      "siche": 6330,
      "##gliando": 6331,
      "appeti": 6332,
      "##ttera": 6333,
      "havere": 6334,
      "accorte": 6335,
      "alberghi": 6336,
      "uccider": 6337,
      "brigata": 6338,
      "diversa": 6339,
      "crescer": 6340,
      "graziosa": 6341,
      "vecchiezza": 6342,
      "sora": 6343,
      "ul": 6344,
      "##ota": 6345,
      "##rino": 6346,
      "##sor": 6347,
      "##olga": 6348,
      "inuti": 6349,
      "nego": 6350,
      "negra": 6351,
      "giglio": 6352,
      "##nata": 6353,
      "traccia": 6354,
      "vado": 6355,
      "muri": 6356,
      "apena": 6357,
      "opere": 6358,
      "troiano": 6359,
      "herba": 6360,
      "util": 6361,
      "sempiterno": 6362,
      "##vve": 6363,
      "##lor": 6364,
      "dici": 6365,
      "cojj": 6366,
      "statu": 6367,
      "bamb": 6368,
      "creduto": 6369,
      "sereni": 6370,
      "vali": 6371,
      "##zzione": 6372,
      "potendo": 6373,
      "involto": 6374,
      "vidde": 6375,
      "sostener": 6376,
      "ordina": 6377,
      "cervello": 6378,
      "aiace": 6379,
      "smer": 6380,
      "##sel": 6381,
      "levi": 6382,
      "rimar": 6383,
      "sour": 6384,
      "scend": 6385,
      "tibi": 6386,
      "port": 6387,
      "mossi": 6388,
      "vinca": 6389,
      "altronde": 6390,
      "giunger": 6391,
      "grandezza": 6392,
      "annun": 6393,
      "immagin": 6394,
      "##cra": 6395,
      "cho": 6396,
      "deggia": 6397,
      "ridendo": 6398,
      "espresso": 6399,
      "venuti": 6400,
      "vengon": 6401,
      "sancto": 6402,
      "roman": 6403,
      "guidi": 6404,
      "bruno": 6405,
      "leggiero": 6406,
      "finita": 6407,
      "regal": 6408,
      "dimandar": 6409,
      "corazza": 6410,
      "humil": 6411,
      "?\".": 6412,
      "griphon": 6413,
      "pupille": 6414,
      "lachry": 6415,
      "fune": 6416,
      "ista": 6417,
      "##cante": 6418,
      "##pto": 6419,
      "lete": 6420,
      "angue": 6421,
      "##ggiante": 6422,
      "sazia": 6423,
      "canna": 6424,
      "risguar": 6425,
      "tenero": 6426,
      "interna": 6427,
      "narro": 6428,
      "urna": 6429,
      "silv": 6430,
      "finito": 6431,
      "rapido": 6432,
      "mostran": 6433,
      "peregrino": 6434,
      "torrente": 6435,
      "isc": 6436,
      "##cell": 6437,
      "##tui": 6438,
      "dier": 6439,
      "inve": 6440,
      "alcide": 6441,
      "suggetto": 6442,
      "cadu": 6443,
      "pamp": 6444,
      "##tron": 6445,
      "promi": 6446,
      "meni": 6447,
      "cervo": 6448,
      "pianura": 6449,
      "puni": 6450,
      "immer": 6451,
      "longo": 6452,
      "conosciuto": 6453,
      "andasse": 6454,
      "scontro": 6455,
      "auree": 6456,
      "assiso": 6457,
      "velen": 6458,
      "discordia": 6459,
      "convenne": 6460,
      "creatura": 6461,
      "raccoglie": 6462,
      "ip": 6463,
      "##gol": 6464,
      "arnese": 6465,
      "##bbo": 6466,
      "prepara": 6467,
      "scom": 6468,
      "bacia": 6469,
      "nudri": 6470,
      "crudi": 6471,
      "foss": 6472,
      "ingomb": 6473,
      "stupor": 6474,
      "trovai": 6475,
      "opini": 6476,
      "alloggia": 6477,
      "contraria": 6478,
      "fesse": 6479,
      "rari": 6480,
      "##bello": 6481,
      "##zoni": 6482,
      "##simo": 6483,
      "gittar": 6484,
      "accusa": 6485,
      "darli": 6486,
      "##ulta": 6487,
      "##siede": 6488,
      "rivolta": 6489,
      "chieggio": 6490,
      "esperi": 6491,
      "disteso": 6492,
      "corsier": 6493,
      "acor": 6494,
      "lombar": 6495,
      "rina": 6496,
      "##arca": 6497,
      "cacci": 6498,
      "mezz": 6499,
      "pazi": 6500,
      "pugn": 6501,
      "saturno": 6502,
      "dottor": 6503,
      "##venta": 6504,
      "##ssero": 6505,
      "ascende": 6506,
      "quinto": 6507,
      "vorrebbe": 6508,
      "folgor": 6509,
      "andrai": 6510,
      "costante": 6511,
      "intesa": 6512,
      "divise": 6513,
      "animale": 6514,
      "leggier": 6515,
      "medicina": 6516,
      "rimira": 6517,
      "mirto": 6518,
      "trapassa": 6519,
      "pente": 6520,
      "##cus": 6521,
      "##uli": 6522,
      "iner": 6523,
      "##int": 6524,
      "contri": 6525,
      "corti": 6526,
      "figlie": 6527,
      "ello": 6528,
      "##torio": 6529,
      "##diate": 6530,
      "vedesse": 6531,
      "ragiono": 6532,
      "prometto": 6533,
      "misericordia": 6534,
      "sottil": 6535,
      "fingallo": 6536,
      "meste": 6537,
      "##cino": 6538,
      "intro": 6539,
      "lauda": 6540,
      "##dit": 6541,
      "poten": 6542,
      "privi": 6543,
      "##bat": 6544,
      "risor": 6545,
      "sorda": 6546,
      "vedeva": 6547,
      "##llar": 6548,
      "dimando": 6549,
      "briga": 6550,
      "vilta": 6551,
      "gallo": 6552,
      "peccati": 6553,
      "abbassa": 6554,
      "barbaro": 6555,
      "eccelsa": 6556,
      "##bero": 6557,
      "##cani": 6558,
      "##yn": 6559,
      "##erer": 6560,
      "##onne": 6561,
      "##ccare": 6562,
      "masc": 6563,
      "catti": 6564,
      "faggio": 6565,
      "armento": 6566,
      "##bato": 6567,
      "rotti": 6568,
      "ragionando": 6569,
      "comprende": 6570,
      "incontrar": 6571,
      "acerbe": 6572,
      "varii": 6573,
      "achivi": 6574,
      "gla": 6575,
      "ggnente": 6576,
      "iusti": 6577,
      "sesso": 6578,
      "##ganza": 6579,
      "##rir": 6580,
      "post": 6581,
      "infelici": 6582,
      "##stin": 6583,
      "rischio": 6584,
      "compagne": 6585,
      "infernal": 6586,
      "cavaliero": 6587,
      "selvaggia": 6588,
      "posson": 6589,
      "doglioso": 6590,
      "tributo": 6591,
      "bus": 6592,
      "##fero": 6593,
      "##fei": 6594,
      "##arti": 6595,
      "nembi": 6596,
      "fabb": 6597,
      "radici": 6598,
      "aspira": 6599,
      "pei": 6600,
      "cervi": 6601,
      "affron": 6602,
      "spatio": 6603,
      "toglia": 6604,
      "vicine": 6605,
      "orrido": 6606,
      "corrente": 6607,
      "trionfo": 6608,
      "dormir": 6609,
      "manifesta": 6610,
      "terror": 6611,
      "ampie": 6612,
      "bestie": 6613,
      "phe": 6614,
      "##ers": 6615,
      "##esca": 6616,
      "sibi": 6617,
      "conci": 6618,
      "debile": 6619,
      "##omma": 6620,
      "famose": 6621,
      "pago": 6622,
      "gliel": 6623,
      "##erete": 6624,
      "rade": 6625,
      "carcer": 6626,
      "batter": 6627,
      "tentar": 6628,
      "lontani": 6629,
      "botte": 6630,
      "cinqu": 6631,
      "respon": 6632,
      "insano": 6633,
      "varca": 6634,
      "lagrimando": 6635,
      "escon": 6636,
      "disire": 6637,
      "mestier": 6638,
      "jo": 6639,
      "cheto": 6640,
      "leoni": 6641,
      "corda": 6642,
      "porgi": 6643,
      "##rono": 6644,
      "offerse": 6645,
      "scriver": 6646,
      "battaglie": 6647,
      "confonde": 6648,
      "soffi": 6649,
      "vestito": 6650,
      "scherno": 6651,
      "prudenza": 6652,
      "eccelse": 6653,
      "istessa": 6654,
      "devoto": 6655,
      "grazioso": 6656,
      "sveglia": 6657,
      "arbitrio": 6658,
      "dd": 6659,
      "imi": 6660,
      "iudi": 6661,
      "##angu": 6662,
      "semo": 6663,
      "spun": 6664,
      "arn": 6665,
      "corn": 6666,
      "sob": 6667,
      "cian": 6668,
      "lodato": 6669,
      "noioso": 6670,
      "pezzi": 6671,
      "dovunque": 6672,
      "consumi": 6673,
      "fugace": 6674,
      "solitario": 6675,
      "atter": 6676,
      "##cosa": 6677,
      "casca": 6678,
      "patti": 6679,
      "fisso": 6680,
      "lochi": 6681,
      "pres": 6682,
      "ravvi": 6683,
      "##condi": 6684,
      "tengo": 6685,
      "crude": 6686,
      "nilo": 6687,
      "chiostro": 6688,
      "follia": 6689,
      "comparte": 6690,
      "orribile": 6691,
      "trastu": 6692,
      "ospi": 6693,
      "baston": 6694,
      "occor": 6695,
      "##mos": 6696,
      "##all": 6697,
      "##ellar": 6698,
      "magna": 6699,
      "nevi": 6700,
      "cavo": 6701,
      "##dava": 6702,
      "pudica": 6703,
      "tiro": 6704,
      "destre": 6705,
      "possia": 6706,
      "calor": 6707,
      "##ssce": 6708,
      "incol": 6709,
      "bocc": 6710,
      "armatura": 6711,
      "havuto": 6712,
      "profonde": 6713,
      "omero": 6714,
      "differ": 6715,
      "flor": 6716,
      "incresce": 6717,
      "tiranni": 6718,
      "cent": 6719,
      "obe": 6720,
      "##ombo": 6721,
      "##diti": 6722,
      "mila": 6723,
      "rise": 6724,
      "fuggia": 6725,
      "adri": 6726,
      "salu": 6727,
      "bionda": 6728,
      "finto": 6729,
      "giuso": 6730,
      "denno": 6731,
      "ceus": 6732,
      "turbo": 6733,
      "appressa": 6734,
      "angelo": 6735,
      "folto": 6736,
      "domando": 6737,
      "tartaro": 6738,
      "minore": 6739,
      "##porto": 6740,
      "erbette": 6741,
      "umilta": 6742,
      "divenne": 6743,
      "mattino": 6744,
      "cambio": 6745,
      "!.": 6746,
      "eb": 6747,
      "##bondo": 6748,
      "##sque": 6749,
      "##daro": 6750,
      "##ersi": 6751,
      "orrendo": 6752,
      "soldan": 6753,
      "volve": 6754,
      "##orati": 6755,
      "cover": 6756,
      "##gei": 6757,
      "carb": 6758,
      "torti": 6759,
      "##ssione": 6760,
      "apporta": 6761,
      "##andra": 6762,
      "scoprir": 6763,
      "botto": 6764,
      "inferma": 6765,
      "passion": 6766,
      "paragon": 6767,
      "arcion": 6768,
      "ritornare": 6769,
      "pelide": 6770,
      "uffi": 6771,
      "##ranza": 6772,
      "##vuto": 6773,
      "lasc": 6774,
      "misto": 6775,
      "negar": 6776,
      "tedes": 6777,
      "elmetto": 6778,
      "esper": 6779,
      "saver": 6780,
      "fecondo": 6781,
      "##mpogna": 6782,
      "ferm": 6783,
      "lievi": 6784,
      "##ghil": 6785,
      "baleno": 6786,
      "ombro": 6787,
      "aph": 6788,
      "voleva": 6789,
      "entrata": 6790,
      "chiedi": 6791,
      "medico": 6792,
      "perfido": 6793,
      "##tunno": 6794,
      "tesse": 6795,
      "##cava": 6796,
      "##ggiare": 6797,
      "canzone": 6798,
      "saluta": 6799,
      "enn": 6800,
      "roco": 6801,
      "piani": 6802,
      "furti": 6803,
      "sparsa": 6804,
      "fuggito": 6805,
      "imperador": 6806,
      "flutto": 6807,
      "daro": 6808,
      "evi": 6809,
      "gusta": 6810,
      "dit": 6811,
      "##aldi": 6812,
      "vizi": 6813,
      "vissi": 6814,
      "dele": 6815,
      "sacer": 6816,
      "dolori": 6817,
      "##zzato": 6818,
      "finestra": 6819,
      "rode": 6820,
      "##sento": 6821,
      "vedesti": 6822,
      "conforti": 6823,
      "usbergo": 6824,
      "parimente": 6825,
      "usate": 6826,
      "ssempre": 6827,
      "soggiunse": 6828,
      "olimpo": 6829,
      "tempie": 6830,
      "suspir": 6831,
      "aga": 6832,
      "ffi": 6833,
      "peste": 6834,
      "##sar": 6835,
      "##teo": 6836,
      "##iosi": 6837,
      "matri": 6838,
      "madri": 6839,
      "ritto": 6840,
      "caver": 6841,
      "arso": 6842,
      "amb": 6843,
      "pensai": 6844,
      "##pida": 6845,
      "proter": 6846,
      "tauro": 6847,
      "fosso": 6848,
      "incerto": 6849,
      "mercu": 6850,
      "##forza": 6851,
      "chiuder": 6852,
      "dispera": 6853,
      "armate": 6854,
      "larme": 6855,
      "ultimi": 6856,
      "popoli": 6857,
      "emperer": 6858,
      "##minato": 6859,
      "truovi": 6860,
      "groppa": 6861,
      "fanciulli": 6862,
      "impaccio": 6863,
      "oceano": 6864,
      "teseo": 6865,
      "risuona": 6866,
      "vva": 6867,
      "secoli": 6868,
      "decre": 6869,
      "demonio": 6870,
      "ane": 6871,
      "dammi": 6872,
      "colomba": 6873,
      "rese": 6874,
      "venn": 6875,
      "femine": 6876,
      "##tarlo": 6877,
      "gioconda": 6878,
      "quam": 6879,
      "rozzo": 6880,
      "##rossi": 6881,
      "altier": 6882,
      "seguente": 6883,
      "ttutto": 6884,
      "dispieta": 6885,
      "appoggia": 6886,
      "tenace": 6887,
      "##ellone": 6888,
      "commi": 6889,
      "##vido": 6890,
      "sopp": 6891,
      "chiese": 6892,
      "marco": 6893,
      "torta": 6894,
      "poste": 6895,
      "tolte": 6896,
      "antiqua": 6897,
      "dispensa": 6898,
      "oblia": 6899,
      "correa": 6900,
      "ingordo": 6901,
      "ccor": 6902,
      "moi": 6903,
      "pele": 6904,
      "tr": 6905,
      "vore": 6906,
      "##data": 6907,
      "fattor": 6908,
      "##qual": 6909,
      "##tretta": 6910,
      "risol": 6911,
      "##cum": 6912,
      "sovr": 6913,
      "dovria": 6914,
      "palaf": 6915,
      "sincero": 6916,
      "bontade": 6917,
      "ciechi": 6918,
      "lungamente": 6919,
      "orrida": 6920,
      "muoia": 6921,
      "minaccio": 6922,
      "castella": 6923,
      "imagine": 6924,
      "diventa": 6925,
      "zerbino": 6926,
      "pregiato": 6927,
      "placido": 6928,
      "cess": 6929,
      "panno": 6930,
      "##je": 6931,
      "lampa": 6932,
      "matina": 6933,
      "tea": 6934,
      "habi": 6935,
      "soldati": 6936,
      "cuer": 6937,
      "piastra": 6938,
      "##ttone": 6939,
      "augei": 6940,
      "stolta": 6941,
      "arbore": 6942,
      "vermiglie": 6943,
      "inimico": 6944,
      "padiglion": 6945,
      "ombrose": 6946,
      "usc": 6947,
      "##cesse": 6948,
      "viste": 6949,
      "temenza": 6950,
      "noiosa": 6951,
      "avanzi": 6952,
      "mangiar": 6953,
      "femm": 6954,
      "faran": 6955,
      "##donio": 6956,
      "contrasto": 6957,
      "guardare": 6958,
      "superna": 6959,
      "accorge": 6960,
      "confusi": 6961,
      "veggon": 6962,
      "trans": 6963,
      "animoso": 6964,
      "imperatore": 6965,
      "disserra": 6966,
      "aventura": 6967,
      "fanciulle": 6968,
      "durezza": 6969,
      "conquiso": 6970,
      "occupa": 6971,
      "christi": 6972,
      "sacerdo": 6973,
      "apra": 6974,
      "duna": 6975,
      "udia": 6976,
      "##sene": 6977,
      "chin": 6978,
      "##rea": 6979,
      "setta": 6980,
      "sum": 6981,
      "mach": 6982,
      "magion": 6983,
      "mihi": 6984,
      "capace": 6985,
      "fummo": 6986,
      "armar": 6987,
      "dela": 6988,
      "orfeo": 6989,
      "cospetto": 6990,
      "rapace": 6991,
      "pento": 6992,
      "talche": 6993,
      "robba": 6994,
      "sorse": 6995,
      "##senza": 6996,
      "crudeli": 6997,
      "cortesi": 6998,
      "lasciare": 6999,
      "farebbe": 7000,
      "inseme": 7001,
      "maligno": 7002,
      "poverta": 7003,
      "riviera": 7004,
      "horribil": 7005,
      "segreto": 7006,
      "saprei": 7007,
      "##ghilterra": 7008,
      "##tione": 7009,
      "severo": 7010,
      "consa": 7011,
      "nef": 7012,
      "mett": 7013,
      "regg": 7014,
      "sermone": 7015,
      "##rarsi": 7016,
      "alcuni": 7017,
      "tolti": 7018,
      "elementi": 7019,
      "spietata": 7020,
      "tesori": 7021,
      "egual": 7022,
      "labbro": 7023,
      "ombroso": 7024,
      "paion": 7025,
      "ase": 7026,
      "fel": 7027,
      "ossi": 7028,
      "##tevi": 7029,
      "ricu": 7030,
      "##miti": 7031,
      "arra": 7032,
      "##lata": 7033,
      "delo": 7034,
      "etterno": 7035,
      "onesti": 7036,
      "torte": 7037,
      "trofei": 7038,
      "cupo": 7039,
      "salvi": 7040,
      "##vallo": 7041,
      "impri": 7042,
      "tolga": 7043,
      "ardori": 7044,
      "lascian": 7045,
      "alteri": 7046,
      "orecchia": 7047,
      "oltraggi": 7048,
      "primier": 7049,
      "spiegar": 7050,
      "princip": 7051,
      "populo": 7052,
      "amicizia": 7053,
      "candide": 7054,
      "montagne": 7055,
      "smalto": 7056,
      "obblio": 7057,
      "sfavilla": 7058,
      "tempestoso": 7059,
      "appetito": 7060,
      "mercurio": 7061,
      "dro": 7062,
      "##ymp": 7063,
      "##ania": 7064,
      "labra": 7065,
      "ille": 7066,
      "simula": 7067,
      "sugge": 7068,
      "vis": 7069,
      "##gliare": 7070,
      "fieno": 7071,
      "pozzo": 7072,
      "volun": 7073,
      "produce": 7074,
      "fargli": 7075,
      "##gegno": 7076,
      "##taria": 7077,
      "trovera": 7078,
      "##ghio": 7079,
      "##volo": 7080,
      "ponga": 7081,
      "seguita": 7082,
      "lasciata": 7083,
      "ballo": 7084,
      "guasta": 7085,
      "libertate": 7086,
      "stride": 7087,
      "cenere": 7088,
      "nessuna": 7089,
      "disciolto": 7090,
      "favilla": 7091,
      "lusinghe": 7092,
      "coperta": 7093,
      "perpetua": 7094,
      "aou": 7095,
      "##trando": 7096,
      "##nente": 7097,
      "indosso": 7098,
      "lamenta": 7099,
      "mamma": 7100,
      "rito": 7101,
      "amone": 7102,
      "disgiun": 7103,
      "cote": 7104,
      "quae": 7105,
      "allato": 7106,
      "affrena": 7107,
      "##mane": 7108,
      "rincre": 7109,
      "aspettando": 7110,
      "queto": 7111,
      "cittadi": 7112,
      "intesi": 7113,
      "laltra": 7114,
      "truovo": 7115,
      "dipartir": 7116,
      "ginocchi": 7117,
      "pellegrino": 7118,
      "domandar": 7119,
      "ginevra": 7120,
      "##vino": 7121,
      "##vesse": 7122,
      "##fare": 7123,
      "stento": 7124,
      "aldi": 7125,
      "alter": 7126,
      "matre": 7127,
      "retro": 7128,
      "cocchio": 7129,
      "posar": 7130,
      "goda": 7131,
      "vedessi": 7132,
      "##cario": 7133,
      "figliol": 7134,
      "mirate": 7135,
      "fiorenti": 7136,
      "larghe": 7137,
      "nascoso": 7138,
      "strepito": 7139,
      "giudizio": 7140,
      "attento": 7141,
      "filoso": 7142,
      "riguardar": 7143,
      "utile": 7144,
      "uguale": 7145,
      "solitaria": 7146,
      "##................": 7147,
      "sunt": 7148,
      "beste": 7149,
      "fellon": 7150,
      "sesto": 7151,
      "ttro": 7152,
      "##anz": 7153,
      "inqui": 7154,
      "anca": 7155,
      "##date": 7156,
      "paglia": 7157,
      "soldano": 7158,
      "reggi": 7159,
      "fori": 7160,
      "sabbia": 7161,
      "risve": 7162,
      "finge": 7163,
      "fosca": 7164,
      "rinfre": 7165,
      "furto": 7166,
      "stim": 7167,
      "belleza": 7168,
      "sospirar": 7169,
      "pensero": 7170,
      "sarete": 7171,
      "fuggo": 7172,
      "imperator": 7173,
      "humile": 7174,
      "sottile": 7175,
      "conserva": 7176,
      "melissa": 7177,
      "tess": 7178,
      "##dal": 7179,
      "verbo": 7180,
      "ladron": 7181,
      "pira": 7182,
      "mac": 7183,
      "vibra": 7184,
      "civi": 7185,
      "rapina": 7186,
      "avesti": 7187,
      "produ": 7188,
      "tormenta": 7189,
      "errar": 7190,
      "merta": 7191,
      "beve": 7192,
      "studia": 7193,
      "nemiche": 7194,
      "##cristo": 7195,
      "apparse": 7196,
      "ornate": 7197,
      "vermigli": 7198,
      "condotti": 7199,
      "infido": 7200,
      "ringrazio": 7201,
      "ombrosa": 7202,
      "richiede": 7203,
      "volonta": 7204,
      "supremo": 7205,
      "officio": 7206,
      "bolo": 7207,
      "mele": 7208,
      "nvi": 7209,
      "##ttene": 7210,
      "##garo": 7211,
      "alpi": 7212,
      "##altro": 7213,
      "maggna": 7214,
      "riveri": 7215,
      "capri": 7216,
      "##glante": 7217,
      "guari": 7218,
      "desiato": 7219,
      "gratie": 7220,
      "cugin": 7221,
      "moder": 7222,
      "imperi": 7223,
      "sanz": 7224,
      "##menda": 7225,
      "celar": 7226,
      "balli": 7227,
      "larve": 7228,
      "raccolta": 7229,
      "vestita": 7230,
      "stanche": 7231,
      "spietato": 7232,
      "narci": 7233,
      "sciogli": 7234,
      "eternamente": 7235,
      "estremi": 7236,
      "prora": 7237,
      "historia": 7238,
      "lamentar": 7239,
      "eco": 7240,
      "glo": 7241,
      "ty": 7242,
      "##ump": 7243,
      "digni": 7244,
      "##tas": 7245,
      "##chino": 7246,
      "faggi": 7247,
      "corde": 7248,
      "paur": 7249,
      "scender": 7250,
      "espre": 7251,
      "sacco": 7252,
      "dolze": 7253,
      "infonde": 7254,
      "greggia": 7255,
      "voria": 7256,
      "onorar": 7257,
      "confine": 7258,
      "persua": 7259,
      "pietosi": 7260,
      "muover": 7261,
      "arabi": 7262,
      "giovanetto": 7263,
      "disir": 7264,
      "converse": 7265,
      "ignoto": 7266,
      "trafitto": 7267,
      "inalza": 7268,
      "rroma": 7269,
      "ind": 7270,
      "insci": 7271,
      "##res": 7272,
      "fasti": 7273,
      "coloro": 7274,
      "vapor": 7275,
      "piegar": 7276,
      "belve": 7277,
      "creta": 7278,
      "serpi": 7279,
      "guidar": 7280,
      "dispone": 7281,
      "mesce": 7282,
      "bbra": 7283,
      "usati": 7284,
      "brieve": 7285,
      "lavora": 7286,
      "##tonte": 7287,
      "languire": 7288,
      "flori": 7289,
      "fallire": 7290,
      "dormire": 7291,
      "clori": 7292,
      "crescendo": 7293,
      "genitor": 7294,
      "peggior": 7295,
      "cy": 7296,
      "celi": 7297,
      "ier": 7298,
      "the": 7299,
      "##gina": 7300,
      "alato": 7301,
      "matu": 7302,
      "##unche": 7303,
      "anten": 7304,
      "soper": 7305,
      "amon": 7306,
      "ammor": 7307,
      "fide": 7308,
      "povere": 7309,
      "este": 7310,
      "razza": 7311,
      "pecor": 7312,
      "importa": 7313,
      "taccio": 7314,
      "freschi": 7315,
      "##quam": 7316,
      "specchi": 7317,
      "punir": 7318,
      "balza": 7319,
      "effi": 7320,
      "sicur": 7321,
      "francois": 7322,
      "grotte": 7323,
      "bastone": 7324,
      "alpestre": 7325,
      "testimonio": 7326,
      "gelato": 7327,
      "richiama": 7328,
      "##seida": 7329,
      "impo": 7330,
      "issa": 7331,
      "##uom": 7332,
      "##genza": 7333,
      "inonda": 7334,
      "##iose": 7335,
      "converso": 7336,
      "grava": 7337,
      "cerule": 7338,
      "affo": 7339,
      "##fica": 7340,
      "##forme": 7341,
      "ripari": 7342,
      "templi": 7343,
      "confli": 7344,
      "confini": 7345,
      "uccida": 7346,
      "simigli": 7347,
      "obsc": 7348,
      "rimembra": 7349,
      "turbata": 7350,
      "arrivo": 7351,
      "germano": 7352,
      "grossi": 7353,
      "clemente": 7354,
      "padiglione": 7355,
      "exempio": 7356,
      "pome": 7357,
      "ubbi": 7358,
      "##bal": 7359,
      "tut": 7360,
      "spor": 7361,
      "##cita": 7362,
      "vegli": 7363,
      "lima": 7364,
      "grano": 7365,
      "vota": 7366,
      "rupe": 7367,
      "##venza": 7368,
      "amator": 7369,
      "stup": 7370,
      "propin": 7371,
      "cacciato": 7372,
      "cacciator": 7373,
      "cquar": 7374,
      "olivier": 7375,
      "tranquille": 7376,
      "fulmine": 7377,
      "adira": 7378,
      "sface": 7379,
      "ritira": 7380,
      "incomincia": 7381,
      "ghirlande": 7382,
      "mere": 7383,
      "ridente": 7384,
      "faa": 7385,
      "pain": 7386,
      "pasto": 7387,
      "orsi": 7388,
      "morbi": 7389,
      "avant": 7390,
      "travi": 7391,
      "dubbia": 7392,
      "femini": 7393,
      "accetta": 7394,
      "serene": 7395,
      "salve": 7396,
      "moti": 7397,
      "movi": 7398,
      "roda": 7399,
      "triun": 7400,
      "fregio": 7401,
      "##berta": 7402,
      "##ulti": 7403,
      "andai": 7404,
      "venian": 7405,
      "muova": 7406,
      "huomo": 7407,
      "troian": 7408,
      "similmente": 7409,
      "accidente": 7410,
      "riverenza": 7411,
      "cangiato": 7412,
      "vedrete": 7413,
      "sopr": 7414,
      "riprese": 7415,
      "mangiare": 7416,
      "?...": 7417,
      "agua": 7418,
      "ccon": 7419,
      "doi": 7420,
      "ppro": 7421,
      "##onio": 7422,
      "inghilterra": 7423,
      "legar": 7424,
      "summo": 7425,
      "matura": 7426,
      "cadendo": 7427,
      "temi": 7428,
      "volessi": 7429,
      "presenti": 7430,
      "vasto": 7431,
      "purga": 7432,
      "appro": 7433,
      "affe": 7434,
      "scul": 7435,
      "nuoce": 7436,
      "bontate": 7437,
      "pensava": 7438,
      "ultime": 7439,
      "##urie": 7440,
      "ancide": 7441,
      "timido": 7442,
      "ingorda": 7443,
      "sospeso": 7444,
      "merzede": 7445,
      "nettuno": 7446,
      "amai": 7447,
      "inven": 7448,
      "##esco": 7449,
      "poeu": 7450,
      "cole": 7451,
      "rece": 7452,
      "vengono": 7453,
      "cotanta": 7454,
      "procura": 7455,
      "lur": 7456,
      "cangio": 7457,
      "##sciu": 7458,
      "sant": 7459,
      "aiu": 7460,
      "virtuti": 7461,
      "ancella": 7462,
      "gher": 7463,
      "intenta": 7464,
      "abandon": 7465,
      "penetra": 7466,
      "cener": 7467,
      "finire": 7468,
      "concento": 7469,
      "prestamente": 7470,
      "aggiunge": 7471,
      "dispiace": 7472,
      "?.": 7473,
      "getto": 7474,
      "mmi": 7475,
      "rossi": 7476,
      "##cida": 7477,
      "amen": 7478,
      "##bbre": 7479,
      "rabi": 7480,
      "dolse": 7481,
      "##pide": 7482,
      "stabili": 7483,
      "acuti": 7484,
      "ruote": 7485,
      "tacendo": 7486,
      "incende": 7487,
      "ciasca": 7488,
      "dirti": 7489,
      "riprende": 7490,
      "frange": 7491,
      "passata": 7492,
      "guardate": 7493,
      "urto": 7494,
      "pomo": 7495,
      "ascolti": 7496,
      "sinistro": 7497,
      "diritto": 7498,
      "agevol": 7499,
      "alessandro": 7500,
      "verme": 7501,
      "##orum": 7502,
      "sim": 7503,
      "pier": 7504,
      "devea": 7505,
      "partendo": 7506,
      "mem": 7507,
      "solenne": 7508,
      "disti": 7509,
      "disfi": 7510,
      "giacer": 7511,
      "donato": 7512,
      "pieghi": 7513,
      "fracca": 7514,
      "canne": 7515,
      "falce": 7516,
      "furioso": 7517,
      "seguite": 7518,
      "scior": 7519,
      "udita": 7520,
      "intender": 7521,
      "abbiate": 7522,
      "pensato": 7523,
      "paragone": 7524,
      "##mulo": 7525,
      "piangete": 7526,
      "solleva": 7527,
      "meschin": 7528,
      "gorgo": 7529,
      "ppre": 7530,
      "##vesti": 7531,
      "##gari": 7532,
      "##alta": 7533,
      "tucc": 7534,
      "magan": 7535,
      "visc": 7536,
      "tedio": 7537,
      "vegio": 7538,
      "poveri": 7539,
      "cossi": 7540,
      "vati": 7541,
      "cugino": 7542,
      "quid": 7543,
      "infran": 7544,
      "vallo": 7545,
      "buio": 7546,
      "incanti": 7547,
      "alletta": 7548,
      "criseida": 7549,
      "maggiori": 7550,
      "chiuda": 7551,
      "insangu": 7552,
      "dormendo": 7553,
      "impresso": 7554,
      "stretti": 7555,
      "dimostro": 7556,
      "haveano": 7557,
      "gonfia": 7558,
      "flutti": 7559,
      "gustar": 7560,
      "sanguinosa": 7561,
      "grifone": 7562,
      "azzurro": 7563,
      "obietto": 7564,
      "ccu": 7565,
      "##eranno": 7566,
      "##arda": 7567,
      "diome": 7568,
      "inco": 7569,
      "lauri": 7570,
      "conchi": 7571,
      "macon": 7572,
      "presu": 7573,
      "elmi": 7574,
      "##petta": 7575,
      "bastar": 7576,
      "entrare": 7577,
      "risonar": 7578,
      "vederla": 7579,
      "celato": 7580,
      "invitta": 7581,
      "maniere": 7582,
      "fructo": 7583,
      "honesto": 7584,
      "simili": 7585,
      "rimasi": 7586,
      "convito": 7587,
      "levossi": 7588,
      "contempla": 7589,
      "riscon": 7590,
      "celeb": 7591,
      "accenna": 7592,
      "insidie": 7593,
      "digiuno": 7594,
      "otta": 7595,
      "vvo": 7596,
      "##vor": 7597,
      "##nale": 7598,
      "##alti": 7599,
      "##rico": 7600,
      "contare": 7601,
      "letti": 7602,
      "mattu": 7603,
      "fijjo": 7604,
      "gior": 7605,
      "ettore": 7606,
      "##bber": 7607,
      "reggia": 7608,
      "pregion": 7609,
      "rap": 7610,
      "dubio": 7611,
      "##zzare": 7612,
      "allori": 7613,
      "erb": 7614,
      "cantor": 7615,
      "##terio": 7616,
      "signora": 7617,
      "tremando": 7618,
      "##stanti": 7619,
      "giuno": 7620,
      "ceda": 7621,
      "rispu": 7622,
      "apprezza": 7623,
      "dovere": 7624,
      "giovin": 7625,
      "ricordar": 7626,
      "nobilta": 7627,
      "impedi": 7628,
      "lontane": 7629,
      "campane": 7630,
      "diparte": 7631,
      "ricov": 7632,
      "riverente": 7633,
      "uccelli": 7634,
      "trovando": 7635,
      "nocchiero": 7636,
      "accade": 7637,
      "appaga": 7638,
      "egregi": 7639,
      "attrista": 7640,
      "spelonca": 7641,
      "mess": 7642,
      "##cale": 7643,
      "##desta": 7644,
      "##geni": 7645,
      "##fante": 7646,
      "insta": 7647,
      "ricom": 7648,
      "caste": 7649,
      "comman": 7650,
      "##vis": 7651,
      "cibi": 7652,
      "scossa": 7653,
      "dum": 7654,
      "fari": 7655,
      "destru": 7656,
      "servar": 7657,
      "ruota": 7658,
      "multi": 7659,
      "luno": 7660,
      "cruccio": 7661,
      "calp": 7662,
      "darti": 7663,
      "benede": 7664,
      "accorti": 7665,
      "folli": 7666,
      "domin": 7667,
      "confusa": 7668,
      "impresse": 7669,
      "aprire": 7670,
      "feroci": 7671,
      "andato": 7672,
      "diffesa": 7673,
      "zefi": 7674,
      "mirare": 7675,
      "smorto": 7676,
      "continuo": 7677,
      "singular": 7678,
      "agogna": 7679,
      "montalbano": 7680,
      "issabella": 7681,
      "sio": 7682,
      "##tona": 7683,
      "##toni": 7684,
      "##ttenne": 7685,
      "into": 7686,
      "alzi": 7687,
      "misti": 7688,
      "##gghi": 7689,
      "spessi": 7690,
      "megli": 7691,
      "dote": 7692,
      "copra": 7693,
      "porco": 7694,
      "credere": 7695,
      "impu": 7696,
      "altrimenti": 7697,
      "soria": 7698,
      "specchia": 7699,
      "merca": 7700,
      "arditi": 7701,
      "discon": 7702,
      "tardar": 7703,
      "uccisi": 7704,
      "priega": 7705,
      "germe": 7706,
      "abbracciar": 7707,
      "segnore": 7708,
      "mattin": 7709,
      "##mantinente": 7710,
      "estoit": 7711,
      "suspiri": 7712,
      "gange": 7713,
      "prodezza": 7714,
      "squarcia": 7715,
      "ocean": 7716,
      "purpureo": 7717,
      "lani": 7718,
      "##eur": 7719,
      "##vel": 7720,
      "##gero": 7721,
      "teti": 7722,
      "predi": 7723,
      "estate": 7724,
      "grana": 7725,
      "dottr": 7726,
      "venendo": 7727,
      "grate": 7728,
      "valente": 7729,
      "buoi": 7730,
      "lancie": 7731,
      "antiqui": 7732,
      "##endol": 7733,
      "turbe": 7734,
      "irata": 7735,
      "fiorir": 7736,
      "chiostri": 7737,
      "conforme": 7738,
      "sembianze": 7739,
      "cenni": 7740,
      "garzone": 7741,
      "squadra": 7742,
      "mariti": 7743,
      "lusinga": 7744,
      "incresca": 7745,
      "terribile": 7746,
      "maganz": 7747,
      "ccia": 7748,
      "sno": 7749,
      "##ec": 7750,
      "##cen": 7751,
      "lab": 7752,
      "sira": 7753,
      "medea": 7754,
      "habito": 7755,
      "gita": 7756,
      "orrenda": 7757,
      "reco": 7758,
      "pregione": 7759,
      "farf": 7760,
      "##dua": 7761,
      "foste": 7762,
      "falcon": 7763,
      "pungenti": 7764,
      "potean": 7765,
      "immantinente": 7766,
      "seguiro": 7767,
      "sofferse": 7768,
      "nomina": 7769,
      "seguo": 7770,
      "facesti": 7771,
      "sforzo": 7772,
      "malizia": 7773,
      "olivi": 7774,
      "##tringe": 7775,
      "dispietato": 7776,
      "az": 7777,
      "ban": 7778,
      "cuna": 7779,
      "ccer": 7780,
      "hore": 7781,
      "ngegno": 7782,
      "vvia": 7783,
      "lasse": 7784,
      "##gnon": 7785,
      "deci": 7786,
      "##unno": 7787,
      "##vit": 7788,
      "fijja": 7789,
      "formar": 7790,
      "dison": 7791,
      "##erea": 7792,
      "avol": 7793,
      "mond": 7794,
      "nate": 7795,
      "##mbre": 7796,
      "rupi": 7797,
      "sostiene": 7798,
      "##olito": 7799,
      "valorosa": 7800,
      "abonda": 7801,
      "aperti": 7802,
      "guardava": 7803,
      "frena": 7804,
      "benigni": 7805,
      "facta": 7806,
      "capti": 7807,
      "dipinta": 7808,
      "scarco": 7809,
      "furie": 7810,
      "traiano": 7811,
      "improvviso": 7812,
      "sobrin": 7813,
      "esa": 7814,
      "mone": 7815,
      "##incon": 7816,
      "conve": 7817,
      "lembo": 7818,
      "mas": 7819,
      "##mati": 7820,
      "anglante": 7821,
      "##viene": 7822,
      "ameno": 7823,
      "##ggione": 7824,
      "##eremo": 7825,
      "avess": 7826,
      "tragge": 7827,
      "adul": 7828,
      "accia": 7829,
      "cresca": 7830,
      "mostrare": 7831,
      "giugne": 7832,
      "allegri": 7833,
      "excel": 7834,
      "arrivi": 7835,
      "aurato": 7836,
      "soavemente": 7837,
      "ssan": 7838,
      "giovinetta": 7839,
      "giovinezza": 7840,
      "niega": 7841,
      "tumulto": 7842,
      "##canti": 7843,
      "##uol": 7844,
      "##ddi": 7845,
      "##gesti": 7846,
      "chon": 7847,
      "neghi": 7848,
      "caduta": 7849,
      "fasto": 7850,
      "cipri": 7851,
      "ognuna": 7852,
      "fors": 7853,
      "##gutte": 7854,
      "fedeli": 7855,
      "portando": 7856,
      "namo": 7857,
      "erro": 7858,
      "creato": 7859,
      "molesto": 7860,
      "palpi": 7861,
      "##ssino": 7862,
      "longa": 7863,
      "scienza": 7864,
      "##orose": 7865,
      "stupe": 7866,
      "guasto": 7867,
      "bbona": 7868,
      "lucida": 7869,
      "abbiamo": 7870,
      "pietose": 7871,
      "pesca": 7872,
      "borgo": 7873,
      "temerario": 7874,
      "innamorato": 7875,
      "prezioso": 7876,
      "filippo": 7877,
      "ghirlanda": 7878,
      "solingo": 7879,
      "raddoppia": 7880,
      "agamen": 7881,
      "cros": 7882,
      "dru": 7883,
      "inva": 7884,
      "secolo": 7885,
      "ritegno": 7886,
      "patro": 7887,
      "costan": 7888,
      "disgra": 7889,
      "astu": 7890,
      "giallo": 7891,
      "senca": 7892,
      "possiede": 7893,
      "enten": 7894,
      "##arie": 7895,
      "darsi": 7896,
      "ascolto": 7897,
      "scop": 7898,
      "queta": 7899,
      "menava": 7900,
      "strette": 7901,
      "sconfi": 7902,
      "maladetto": 7903,
      "potente": 7904,
      "giudice": 7905,
      "nnoi": 7906,
      "condotta": 7907,
      "estima": 7908,
      "tacita": 7909,
      "mormorio": 7910,
      "rimembranza": 7911,
      "elicona": 7912,
      "somiglia": 7913,
      "giornata": 7914,
      "gesta": 7915,
      "los": 7916,
      "nne": 7917,
      "##dona": 7918,
      "##gesse": 7919,
      "##zare": 7920,
      "##eran": 7921,
      "seppi": 7922,
      "ridi": 7923,
      "##cir": 7924,
      "dati": 7925,
      "##sato": 7926,
      "corta": 7927,
      "oneste": 7928,
      "sati": 7929,
      "sazi": 7930,
      "tis": 7931,
      "dubbi": 7932,
      "batti": 7933,
      "curar": 7934,
      "mogli": 7935,
      "aiuti": 7936,
      "foschi": 7937,
      "contrada": 7938,
      "imbi": 7939,
      "vederlo": 7940,
      "sperare": 7941,
      "sparve": 7942,
      "divora": 7943,
      "isoli": 7944,
      "guata": 7945,
      "chiamava": 7946,
      "vittorie": 7947,
      "volgea": 7948,
      "piccola": 7949,
      "abbracci": 7950,
      "sorriso": 7951,
      "pigliare": 7952,
      "success": 7953,
      "necessi": 7954,
      "trovaro": 7955,
      "seguaci": 7956,
      "inimici": 7957,
      "rinova": 7958,
      "proprie": 7959,
      "bronzo": 7960,
      "gagliardi": 7961,
      "diomede": 7962,
      "arai": 7963,
      "ite": 7964,
      "ppar": 7965,
      "rendo": 7966,
      "##ugio": 7967,
      "##pli": 7968,
      "##alza": 7969,
      "##altra": 7970,
      "summa": 7971,
      "orco": 7972,
      "rec": 7973,
      "accin": 7974,
      "##potente": 7975,
      "##corno": 7976,
      "sorga": 7977,
      "abbandono": 7978,
      "piangere": 7979,
      "tout": 7980,
      "stille": 7981,
      "benedi": 7982,
      "turchi": 7983,
      "schietto": 7984,
      "piombo": 7985,
      "spirar": 7986,
      "passione": 7987,
      "primiera": 7988,
      "ignude": 7989,
      "assalir": 7990,
      "secreti": 7991,
      "dicesse": 7992,
      "riscal": 7993,
      "cesso": 7994,
      "dante": 7995,
      "ee": 7996,
      "euri": 7997,
      "gale": 7998,
      "pand": 7999,
      "##baldo": 8000,
      "##smo": 8001,
      "verro": 8002,
      "##olfo": 8003,
      "ines": 8004,
      "##resti": 8005,
      "##inda": 8006,
      "legia": 8007,
      "##chin": 8008,
      "ric": 8009,
      "ario": 8010,
      "pasci": 8011,
      "ciar": 8012,
      "potri": 8013,
      "##erat": 8014,
      "tito": 8015,
      "avo": 8016,
      "duc": 8017,
      "##erita": 8018,
      "margutte": 8019,
      "##gnaggio": 8020,
      "nudi": 8021,
      "##duo": 8022,
      "nostr": 8023,
      "foce": 8024,
      "punte": 8025,
      "usciva": 8026,
      "guidon": 8027,
      "bbella": 8028,
      "umido": 8029,
      "dorma": 8030,
      "scamp": 8031,
      "nascon": 8032,
      "vestigi": 8033,
      "stanze": 8034,
      "tradito": 8035,
      "angeliche": 8036,
      "spiaggia": 8037,
      "privato": 8038,
      "trionfi": 8039,
      "frode": 8040,
      "lusinghi": 8041,
      "norand": 8042,
      "conobbi": 8043,
      "terrore": 8044,
      "messaggier": 8045,
      "emis": 8046,
      "##cqu": 8047,
      "##dui": 8048,
      "##line": 8049,
      "indri": 8050,
      "almi": 8051,
      "matte": 8052,
      "mamm": 8053,
      "cist": 8054,
      "reme": 8055,
      "scola": 8056,
      "savi": 8057,
      "addo": 8058,
      "qualita": 8059,
      "feconda": 8060,
      "coj": 8061,
      "moni": 8062,
      "marin": 8063,
      "##ggiava": 8064,
      "mute": 8065,
      "triump": 8066,
      "##ttori": 8067,
      "extin": 8068,
      "larghi": 8069,
      "lucide": 8070,
      "cquesto": 8071,
      "drapp": 8072,
      "ffatto": 8073,
      "attoni": 8074,
      "vulcano": 8075,
      "mestiero": 8076,
      "timida": 8077,
      "ciasched": 8078,
      "riposar": 8079,
      "ignoranza": 8080,
      "condanna": 8081,
      "ambros": 8082,
      "aro": 8083,
      "agl": 8084,
      "bande": 8085,
      "hy": 8086,
      "melo": 8087,
      "mha": 8088,
      "zio": 8089,
      "dichi": 8090,
      "let": 8091,
      "debbi": 8092,
      "une": 8093,
      "visti": 8094,
      "anel": 8095,
      "veda": 8096,
      "prezza": 8097,
      "disle": 8098,
      "dudon": 8099,
      "##pie": 8100,
      "donque": 8101,
      "stavan": 8102,
      "aspecto": 8103,
      "camera": 8104,
      "mostrato": 8105,
      "univers": 8106,
      "figliuoli": 8107,
      "eccede": 8108,
      "galli": 8109,
      "sfera": 8110,
      "ccosa": 8111,
      "vincitore": 8112,
      "lassar": 8113,
      "ministri": 8114,
      "hic": 8115,
      "robusto": 8116,
      "gloriosi": 8117,
      "angusto": 8118,
      "stendardo": 8119,
      "sconsolata": 8120,
      "tesa": 8121,
      "##cine": 8122,
      "##muta": 8123,
      "##sura": 8124,
      "##til": 8125,
      "alch": 8126,
      "altare": 8127,
      "laura": 8128,
      "labbia": 8129,
      "##ccando": 8130,
      "##ellin": 8131,
      "vivea": 8132,
      "##mpia": 8133,
      "fattore": 8134,
      "tetro": 8135,
      "pagar": 8136,
      "onoro": 8137,
      "tiri": 8138,
      "tirar": 8139,
      "monto": 8140,
      "progeni": 8141,
      "##gnata": 8142,
      "nacqui": 8143,
      "allar": 8144,
      "giovar": 8145,
      "cucu": 8146,
      "culto": 8147,
      "##serta": 8148,
      "entri": 8149,
      "bie": 8150,
      "##terni": 8151,
      "vint": 8152,
      "camina": 8153,
      "sdegnosa": 8154,
      "tartare": 8155,
      "soffio": 8156,
      "migliori": 8157,
      "liberar": 8158,
      "soggiorna": 8159,
      "biade": 8160,
      "libroito": 8161,
      "uccel": 8162,
      "alberi": 8163,
      "hipp": 8164,
      "ugual": 8165,
      "sfida": 8166,
      "paiens": 8167,
      "condizione": 8168,
      "flagello": 8169,
      "penitenza": 8170,
      "raguna": 8171,
      "memorie": 8172,
      "rusti": 8173,
      "##nando": 8174,
      "##landa": 8175,
      "##onna": 8176,
      "chor": 8177,
      "##dili": 8178,
      "##unga": 8179,
      "mich": 8180,
      "nebbie": 8181,
      "gian": 8182,
      "premi": 8183,
      "elesse": 8184,
      "nau": 8185,
      "nasco": 8186,
      "vasi": 8187,
      "##tario": 8188,
      "erta": 8189,
      "entre": 8190,
      "cavalca": 8191,
      "sostien": 8192,
      "autunno": 8193,
      "##sson": 8194,
      "merci": 8195,
      "amista": 8196,
      "##urro": 8197,
      "turris": 8198,
      "spargendo": 8199,
      "consol": 8200,
      "attorno": 8201,
      "conosca": 8202,
      "nascosto": 8203,
      "acerbi": 8204,
      "campion": 8205,
      "dimostri": 8206,
      "piangea": 8207,
      "artiglio": 8208,
      "rubella": 8209,
      "fornito": 8210,
      "meschino": 8211,
      "giovenil": 8212,
      "menzogna": 8213,
      "egro": 8214,
      "iva": 8215,
      "##doso": 8216,
      "stara": 8217,
      "ino": 8218,
      "alci": 8219,
      "##degno": 8220,
      "rimo": 8221,
      "andiamo": 8222,
      "parco": 8223,
      "iocondo": 8224,
      "filli": 8225,
      "girando": 8226,
      "##scon": 8227,
      "rege": 8228,
      "sena": 8229,
      "cocente": 8230,
      "##cchiar": 8231,
      "culo": 8232,
      "##ttanto": 8233,
      "dolcezze": 8234,
      "impalli": 8235,
      "biondi": 8236,
      "pales": 8237,
      "soletta": 8238,
      "ingino": 8239,
      "isole": 8240,
      "##fetti": 8241,
      "teneva": 8242,
      "elette": 8243,
      "##mmia": 8244,
      "arbusc": 8245,
      "sicuri": 8246,
      "artigli": 8247,
      "fallaci": 8248,
      "riguardando": 8249,
      "osserva": 8250,
      "dispietata": 8251,
      "ossian": 8252,
      "conflitto": 8253,
      "agamenn": 8254,
      "fesce": 8255,
      "nf": 8256,
      "omi": 8257,
      "##mmar": 8258,
      "##vri": 8259,
      "##reo": 8260,
      "nondi": 8261,
      "##gnan": 8262,
      "coni": 8263,
      "ricc": 8264,
      "hasta": 8265,
      "orno": 8266,
      "##giura": 8267,
      "##gilio": 8268,
      "scenda": 8269,
      "poich": 8270,
      "##piglia": 8271,
      "adre": 8272,
      "feit": 8273,
      "prim": 8274,
      "##rum": 8275,
      "cercato": 8276,
      "salito": 8277,
      "##fico": 8278,
      "guider": 8279,
      "bbon": 8280,
      "trovava": 8281,
      "ghio": 8282,
      "insu": 8283,
      "serai": 8284,
      "campione": 8285,
      "leggiera": 8286,
      "indugia": 8287,
      "gridava": 8288,
      "stormo": 8289,
      "sublimi": 8290,
      "sciagura": 8291,
      "gloriose": 8292,
      "accresce": 8293,
      "dimoro": 8294,
      "fen": 8295,
      "ng": 8296,
      "nymp": 8297,
      "pant": 8298,
      "##cesi": 8299,
      "##varo": 8300,
      "steri": 8301,
      "piero": 8302,
      "tuoni": 8303,
      "macone": 8304,
      "vitu": 8305,
      "ans": 8306,
      "vetu": 8307,
      "##trato": 8308,
      "puon": 8309,
      "putt": 8310,
      "pocho": 8311,
      "precor": 8312,
      "##torna": 8313,
      "radi": 8314,
      "dodici": 8315,
      "##trone": 8316,
      "stagno": 8317,
      "ergo": 8318,
      "sallo": 8319,
      "incerta": 8320,
      "pungente": 8321,
      "bocche": 8322,
      "discio": 8323,
      "scaglia": 8324,
      "galo": 8325,
      "soccorri": 8326,
      "sciocca": 8327,
      "saputo": 8328,
      "circon": 8329,
      "imperadore": 8330,
      "curvo": 8331,
      "audaci": 8332,
      "levarsi": 8333,
      "distrutto": 8334,
      "incauto": 8335,
      "egregio": 8336,
      "agricane": 8337,
      "sanguinoso": 8338,
      "ggnis": 8339,
      "luminoso": 8340,
      "medesimo": 8341,
      "cella": 8342,
      "isa": 8343,
      "##onso": 8344,
      "lettere": 8345,
      "##lea": 8346,
      "cauto": 8347,
      "parme": 8348,
      "lione": 8349,
      "mendico": 8350,
      "stavano": 8351,
      "alluma": 8352,
      "curi": 8353,
      "movea": 8354,
      "rogo": 8355,
      "terso": 8356,
      "diedi": 8357,
      "chiamare": 8358,
      "gotta": 8359,
      "giunte": 8360,
      "amati": 8361,
      "##luce": 8362,
      "credette": 8363,
      "costanti": 8364,
      "acqueta": 8365,
      "sofferto": 8366,
      "oppone": 8367,
      "legata": 8368,
      "pomi": 8369,
      "dramma": 8370,
      "sacrificio": 8371,
      "ostinato": 8372,
      "christo": 8373,
      "avarizia": 8374,
      "patroclo": 8375,
      "naufra": 8376,
      "pini": 8377,
      "##tran": 8378,
      "##gnor": 8379,
      "deus": 8380,
      "tuto": 8381,
      "risa": 8382,
      "volli": 8383,
      "voltar": 8384,
      "recar": 8385,
      "rame": 8386,
      "avoit": 8387,
      "salita": 8388,
      "vital": 8389,
      "muso": 8390,
      "sancta": 8391,
      "calli": 8392,
      "calde": 8393,
      "fall": 8394,
      "straccia": 8395,
      "guarni": 8396,
      "potei": 8397,
      "antiquo": 8398,
      "riposi": 8399,
      "invidi": 8400,
      "gaulo": 8401,
      "becco": 8402,
      "consolar": 8403,
      "vorrai": 8404,
      "pensosa": 8405,
      "confesso": 8406,
      "tornava": 8407,
      "martiro": 8408,
      "ricordi": 8409,
      "ornamento": 8410,
      "abbaglia": 8411,
      "oliver": 8412,
      "onestate": 8413,
      "mirti": 8414,
      "scelerato": 8415,
      "congiunto": 8416,
      "mormorando": 8417,
      "norma": 8418,
      "torbido": 8419,
      "diavolo": 8420,
      "addietro": 8421,
      "impetuoso": 8422,
      "inerme": 8423,
      "phebo": 8424,
      "emi": 8425,
      "epi": 8426,
      "imba": 8427,
      "otten": 8428,
      "##meri": 8429,
      "##vella": 8430,
      "##rima": 8431,
      "constante": 8432,
      "spina": 8433,
      "comen": 8434,
      "parta": 8435,
      "esperto": 8436,
      "porsi": 8437,
      "carnal": 8438,
      "scoperto": 8439,
      "lascivo": 8440,
      "credete": 8441,
      "libra": 8442,
      "difender": 8443,
      "paladini": 8444,
      "abbatte": 8445,
      "circa": 8446,
      "##heo": 8447,
      "avampa": 8448,
      "grifon": 8449,
      "mansueto": 8450,
      "sottra": 8451,
      "boni": 8452,
      "ida": 8453,
      "##cosi": 8454,
      "##sp": 8455,
      "##strar": 8456,
      "##zan": 8457,
      "dido": 8458,
      "##tita": 8459,
      "perdi": 8460,
      "perda": 8461,
      "sedere": 8462,
      "seconde": 8463,
      "##sopra": 8464,
      "antenne": 8465,
      "##lese": 8466,
      "vedute": 8467,
      "morde": 8468,
      "doppi": 8469,
      "martello": 8470,
      "tormen": 8471,
      "ermo": 8472,
      "belva": 8473,
      "piagne": 8474,
      "##dum": 8475,
      "altrimente": 8476,
      "fregia": 8477,
      "portate": 8478,
      "turpin": 8479,
      "scocca": 8480,
      "dilegua": 8481,
      "novelli": 8482,
      "crollo": 8483,
      "ribaldo": 8484,
      "meschina": 8485,
      "##trinse": 8486,
      "villania": 8487,
      "inchiostri": 8488,
      "virile": 8489,
      "discreto": 8490,
      "avvolto": 8491,
      "procaccia": 8492,
      "dottrina": 8493,
      "asi": 8494,
      "##brio": 8495,
      "##gola": 8496,
      "##xo": 8497,
      "digli": 8498,
      "stelo": 8499,
      "degl": 8500,
      "depin": 8501,
      "ritr": 8502,
      "colti": 8503,
      "dismon": 8504,
      "assen": 8505,
      "trah": 8506,
      "tramor": 8507,
      "giaccio": 8508,
      "accora": 8509,
      "napoli": 8510,
      "erge": 8511,
      "ruba": 8512,
      "##terne": 8513,
      "foe": 8514,
      "aut": 8515,
      "seguiva": 8516,
      "##grado": 8517,
      "udiva": 8518,
      "folti": 8519,
      "assor": 8520,
      "priamo": 8521,
      "usur": 8522,
      "dann": 8523,
      "temea": 8524,
      "candidi": 8525,
      "induce": 8526,
      "adietro": 8527,
      "frodi": 8528,
      "imbr": 8529,
      "vedrem": 8530,
      "mormorar": 8531,
      "attese": 8532,
      "fugir": 8533,
      "cappello": 8534,
      "rallegra": 8535,
      "rugiada": 8536,
      "agghiaccia": 8537,
      "triegua": 8538,
      "smisurato": 8539,
      "turrismondo": 8540,
      "gali": 8541,
      "nen": 8542,
      "tele": 8543,
      "##telli": 8544,
      "las": 8545,
      "##ombe": 8546,
      "rimon": 8547,
      "furent": 8548,
      "gito": 8549,
      "podere": 8550,
      "rason": 8551,
      "asin": 8552,
      "avvers": 8553,
      "dul": 8554,
      "seni": 8555,
      "##usse": 8556,
      "##usca": 8557,
      "##usale": 8558,
      "manch": 8559,
      "mene": 8560,
      "piaggie": 8561,
      "ense": 8562,
      "mojje": 8563,
      "tenda": 8564,
      "calci": 8565,
      "dicean": 8566,
      "fronti": 8567,
      "giunon": 8568,
      "punse": 8569,
      "ceco": 8570,
      "##endendo": 8571,
      "folgore": 8572,
      "oscar": 8573,
      "bbru": 8574,
      "starsi": 8575,
      "pensate": 8576,
      "conduca": 8577,
      "tinta": 8578,
      "fioco": 8579,
      "oppressa": 8580,
      "ministra": 8581,
      "pruove": 8582,
      "temere": 8583,
      "eserci": 8584,
      "bbiso": 8585,
      "metallo": 8586,
      "ritruova": 8587,
      "rodamonte": 8588,
      "attor": 8589,
      "fesso": 8590,
      "vine": 8591,
      "##dosa": 8592,
      "##iate": 8593,
      "intrar": 8594,
      "##alia": 8595,
      "legi": 8596,
      "tuon": 8597,
      "materno": 8598,
      "miglio": 8599,
      "ordini": 8600,
      "distende": 8601,
      "##ggianti": 8602,
      "addita": 8603,
      "qualch": 8604,
      "farse": 8605,
      "farli": 8606,
      "faranno": 8607,
      "accenda": 8608,
      "suavi": 8609,
      "purche": 8610,
      "torce": 8611,
      "bagni": 8612,
      "battendo": 8613,
      "gioioso": 8614,
      "saldi": 8615,
      "biserta": 8616,
      "mutato": 8617,
      "tamb": 8618,
      "steso": 8619,
      "tous": 8620,
      "rinforza": 8621,
      "turpino": 8622,
      "sciolte": 8623,
      "risponda": 8624,
      "appresenta": 8625,
      "ath": 8626,
      "attra": 8627,
      "tenete": 8628,
      "april": 8629,
      "guerriera": 8630,
      "menato": 8631,
      "divisi": 8632,
      "trarre": 8633,
      "abissi": 8634,
      "davant": 8635,
      "aquilon": 8636,
      "disiri": 8637,
      "inchino": 8638,
      "scudier": 8639,
      "eguali": 8640,
      "surge": 8641,
      "estolle": 8642,
      "testimon": 8643,
      "ordinato": 8644,
      "discerne": 8645,
      "vivanda": 8646,
      "allontana": 8647,
      "tramontana": 8648,
      "vezzosa": 8649,
      "ciascadun": 8650,
      "atre": 8651,
      "centi": 8652,
      "pran": 8653,
      "##derai": 8654,
      "##gori": 8655,
      "##yme": 8656,
      "##gnano": 8657,
      "antea": 8658,
      "orti": 8659,
      "solla": 8660,
      "solchi": 8661,
      "##tuma": 8662,
      "regia": 8663,
      "sceso": 8664,
      "lucre": 8665,
      "##poti": 8666,
      "##mbro": 8667,
      "mensola": 8668,
      "acuta": 8669,
      "##beto": 8670,
      "dent": 8671,
      "intelle": 8672,
      "atque": 8673,
      "chiamata": 8674,
      "uniti": 8675,
      "affligge": 8676,
      "abitar": 8677,
      "videro": 8678,
      "cescun": 8679,
      "procelle": 8680,
      "pentir": 8681,
      "notturna": 8682,
      "tenebrosa": 8683,
      "frui": 8684,
      "converra": 8685,
      "nieghi": 8686,
      "attacca": 8687,
      "inzomma": 8688,
      "deriva": 8689,
      "zefiro": 8690,
      "##diligi": 8691,
      "nascose": 8692,
      "emin": 8693,
      "trin": 8694,
      "##cos": 8695,
      "##ddio": 8696,
      "##hon": 8697,
      "##indo": 8698,
      "lego": 8699,
      "tuta": 8700,
      "mista": 8701,
      "rida": 8702,
      "rigor": 8703,
      "daf": 8704,
      "piuma": 8705,
      "giel": 8706,
      "cita": 8707,
      "coste": 8708,
      "dispo": 8709,
      "venera": 8710,
      "prover": 8711,
      "##petti": 8712,
      "##teno": 8713,
      "dolceza": 8714,
      "auri": 8715,
      "##fice": 8716,
      "gamba": 8717,
      "fiordiligi": 8718,
      "##elao": 8719,
      "scemo": 8720,
      "direi": 8721,
      "abon": 8722,
      "onorati": 8723,
      "ariva": 8724,
      "##torie": 8725,
      "scioglia": 8726,
      "genio": 8727,
      "laltre": 8728,
      "campar": 8729,
      "aventur": 8730,
      "levando": 8731,
      "perfetti": 8732,
      "salamone": 8733,
      "soffrire": 8734,
      "ritratto": 8735,
      "ambrosia": 8736,
      "ay": 8737,
      "dre": 8738,
      "ecci": 8739,
      "foi": 8740,
      "geno": 8741,
      "ssenti": 8742,
      "##ttri": 8743,
      "##telo": 8744,
      "diero": 8745,
      "digiun": 8746,
      "diporto": 8747,
      "quos": 8748,
      "conca": 8749,
      "miran": 8750,
      "delli": 8751,
      "coscia": 8752,
      "durar": 8753,
      "manfre": 8754,
      "fetonte": 8755,
      "cogno": 8756,
      "vas": 8757,
      "##ssion": 8758,
      "cuanno": 8759,
      "culla": 8760,
      "serbo": 8761,
      "##perio": 8762,
      "piastre": 8763,
      "rubi": 8764,
      "sani": 8765,
      "hoc": 8766,
      "tagliar": 8767,
      "##ometto": 8768,
      "prendere": 8769,
      "asconda": 8770,
      "seguitando": 8771,
      "arditamente": 8772,
      "sciolti": 8773,
      "passate": 8774,
      "cittadini": 8775,
      "selma": 8776,
      "scampa": 8777,
      "spose": 8778,
      "bisogni": 8779,
      "terrene": 8780,
      "placar": 8781,
      "levata": 8782,
      "dogliosa": 8783,
      "ministro": 8784,
      "infiammato": 8785,
      "legger": 8786,
      "debole": 8787,
      "raccomanda": 8788,
      "discaccia": 8789,
      "centa": 8790,
      "zanto": 8791,
      "##str": 8792,
      "##fran": 8793,
      "##antro": 8794,
      "lee": 8795,
      "riga": 8796,
      "spal": 8797,
      "fusser": 8798,
      "fuochi": 8799,
      "arm": 8800,
      "fissa": 8801,
      "poe": 8802,
      "##entio": 8803,
      "disusa": 8804,
      "scena": 8805,
      "dotte": 8806,
      "coprir": 8807,
      "##verse": 8808,
      "vattene": 8809,
      "cupi": 8810,
      "quieto": 8811,
      "##valle": 8812,
      "acute": 8813,
      "roba": 8814,
      "##quir": 8815,
      "piansi": 8816,
      "giugn": 8817,
      "strasc": 8818,
      "merli": 8819,
      "guise": 8820,
      "mirava": 8821,
      "dolorosi": 8822,
      "libri": 8823,
      "soffia": 8824,
      "nascosa": 8825,
      "cquella": 8826,
      "omeri": 8827,
      "lavori": 8828,
      "naviglio": 8829,
      "querce": 8830,
      "attendi": 8831,
      "assicu": 8832,
      "estran": 8833,
      "disegna": 8834,
      "ritornato": 8835,
      "tristezza": 8836,
      "bisbi": 8837,
      "zarlle": 8838,
      "progenie": 8839,
      "nten": 8840,
      "##vene": 8841,
      "##sio": 8842,
      "verranno": 8843,
      "##onga": 8844,
      "latin": 8845,
      "pir": 8846,
      "casso": 8847,
      "fust": 8848,
      "corra": 8849,
      "soglion": 8850,
      "hab": 8851,
      "dotti": 8852,
      "giaccia": 8853,
      "##usar": 8854,
      "manti": 8855,
      "lucer": 8856,
      "guron": 8857,
      "accetto": 8858,
      "piagato": 8859,
      "enf": 8860,
      "lieva": 8861,
      "spegner": 8862,
      "vedermi": 8863,
      "gabbia": 8864,
      "##tinente": 8865,
      "miracolo": 8866,
      "unito": 8867,
      "cquello": 8868,
      "freddi": 8869,
      "entrato": 8870,
      "infinite": 8871,
      "vagheggia": 8872,
      "pomp": 8873,
      "maligna": 8874,
      "alzarsi": 8875,
      "piccolo": 8876,
      "ttutte": 8877,
      "ronz": 8878,
      "ringrazi": 8879,
      "perdoni": 8880,
      "ombrosi": 8881,
      "peregrina": 8882,
      "inclita": 8883,
      "arcadia": 8884,
      "gent": 8885,
      "mmor": 8886,
      "phi": 8887,
      "vini": 8888,
      "##vre": 8889,
      "##pora": 8890,
      "##fol": 8891,
      "##annar": 8892,
      "staro": 8893,
      "alhor": 8894,
      "dex": 8895,
      "mauro": 8896,
      "##cii": 8897,
      "cat": 8898,
      "arsa": 8899,
      "medu": 8900,
      "teo": 8901,
      "paulo": 8902,
      "gisse": 8903,
      "pubb": 8904,
      "##giardo": 8905,
      "prec": 8906,
      "benda": 8907,
      "elena": 8908,
      "esci": 8909,
      "granne": 8910,
      "venner": 8911,
      "provenza": 8912,
      "pedoni": 8913,
      "movendo": 8914,
      "vosco": 8915,
      "tenni": 8916,
      "calma": 8917,
      "scorsi": 8918,
      "botta": 8919,
      "balen": 8920,
      "mostrate": 8921,
      "valorosi": 8922,
      "prela": 8923,
      "fuggon": 8924,
      "messaggio": 8925,
      "divoto": 8926,
      "ingrati": 8927,
      "giuramento": 8928,
      "cristall": 8929,
      "concordia": 8930,
      "discerno": 8931,
      "thesoro": 8932,
      "cinquanta": 8933,
      "uscendo": 8934,
      "ieri": 8935,
      "ottenne": 8936,
      "sgri": 8937,
      "##ctus": 8938,
      "##uolo": 8939,
      "##uffa": 8940,
      "##schia": 8941,
      "##dos": 8942,
      "##tola": 8943,
      "insen": 8944,
      "ilio": 8945,
      "setti": 8946,
      "##dee": 8947,
      "lettera": 8948,
      "tun": 8949,
      "rider": 8950,
      "aren": 8951,
      "pugne": 8952,
      "fral": 8953,
      "malincon": 8954,
      "ondeggia": 8955,
      "motor": 8956,
      "balis": 8957,
      "folte": 8958,
      "quantita": 8959,
      "sconos": 8960,
      "schermi": 8961,
      "erbetta": 8962,
      "damasco": 8963,
      "infiora": 8964,
      "subita": 8965,
      "succede": 8966,
      "pascer": 8967,
      "invoco": 8968,
      "inclito": 8969,
      "avanzo": 8970,
      "riportar": 8971,
      "piaceri": 8972,
      "cardinale": 8973,
      "figure": 8974,
      "rispuose": 8975,
      "arebbe": 8976,
      "cci": 8977,
      "ddetto": 8978,
      "egeo": 8979,
      "hoste": 8980,
      "obbe": 8981,
      "tenti": 8982,
      "teri": 8983,
      "##uoli": 8984,
      "##dru": 8985,
      "chella": 8986,
      "cheggio": 8987,
      "perduti": 8988,
      "rista": 8989,
      "ridir": 8990,
      "tegna": 8991,
      "sodo": 8992,
      "colta": 8993,
      "disg": 8994,
      "tieni": 8995,
      "aspi": 8996,
      "avolto": 8997,
      "traea": 8998,
      "trattar": 8999,
      "##ussi": 9000,
      "monton": 9001,
      "profi": 9002,
      "provin": 9003,
      "porga": 9004,
      "carcere": 9005,
      "vote": 9006,
      "erina": 9007,
      "##ghera": 9008,
      "##pato": 9009,
      "rumore": 9010,
      "##cula": 9011,
      "prenci": 9012,
      "crudeltade": 9013,
      "offenda": 9014,
      "disposta": 9015,
      "attu": 9016,
      "curato": 9017,
      "respin": 9018,
      "trarmi": 9019,
      "aratro": 9020,
      "lalma": 9021,
      "picciola": 9022,
      "ingiurie": 9023,
      "generosa": 9024,
      "ritiene": 9025,
      "ringrazia": 9026,
      "spense": 9027,
      "reliquie": 9028,
      "sbigottita": 9029,
      "sanguigno": 9030,
      "oliviero": 9031,
      "costanzo": 9032,
      "nt": 9033,
      "##urar": 9034,
      "inves": 9035,
      "##ellino": 9036,
      "gite": 9037,
      "cigni": 9038,
      "orsa": 9039,
      "poesia": 9040,
      "adun": 9041,
      "febbre": 9042,
      "accos": 9043,
      "fervente": 9044,
      "spasso": 9045,
      "frontino": 9046,
      "##endente": 9047,
      "invido": 9048,
      "sparir": 9049,
      "prendete": 9050,
      "afflitti": 9051,
      "strido": 9052,
      "genero": 9053,
      "concesse": 9054,
      "homo": 9055,
      "campana": 9056,
      "discorso": 9057,
      "sgom": 9058,
      "avviso": 9059,
      "accidenti": 9060,
      "creata": 9061,
      "iam": 9062,
      "malvagia": 9063,
      "suprema": 9064,
      "occulta": 9065,
      "capei": 9066,
      "incorona": 9067,
      "antonio": 9068,
      "aio": 9069,
      "doro": 9070,
      "##pta": 9071,
      "chal": 9072,
      "ladri": 9073,
      "perdo": 9074,
      "siens": 9075,
      "maestra": 9076,
      "vitti": 9077,
      "miti": 9078,
      "caggia": 9079,
      "comi": 9080,
      "##mette": 9081,
      "partori": 9082,
      "reden": 9083,
      "esangue": 9084,
      "avin": 9085,
      "sonare": 9086,
      "gialli": 9087,
      "menelao": 9088,
      "piata": 9089,
      "cann": 9090,
      "fiamm": 9091,
      "impie": 9092,
      "rozza": 9093,
      "brame": 9094,
      "##venna": 9095,
      "darvi": 9096,
      "stimar": 9097,
      "partissi": 9098,
      "vederti": 9099,
      "riporta": 9100,
      "scopra": 9101,
      "sovran": 9102,
      "accorda": 9103,
      "##gerio": 9104,
      "compor": 9105,
      "exi": 9106,
      "dovessi": 9107,
      "costanza": 9108,
      "capitani": 9109,
      "effecto": 9110,
      "nomin": 9111,
      "scherza": 9112,
      "sciocchi": 9113,
      "rimanga": 9114,
      "orizz": 9115,
      "entrambi": 9116,
      "ornati": 9117,
      "araldo": 9118,
      "variar": 9119,
      "assalti": 9120,
      "disegni": 9121,
      "ppuro": 9122,
      "pinge": 9123,
      "avenne": 9124,
      "guardie": 9125,
      "sorride": 9126,
      "patire": 9127,
      "omei": 9128,
      "maledetto": 9129,
      "invisibil": 9130,
      "bologna": 9131,
      "lente": 9132,
      "tti": 9133,
      "ttanto": 9134,
      "vello": 9135,
      "##cini": 9136,
      "##posto": 9137,
      "divien": 9138,
      "##dose": 9139,
      "##intorno": 9140,
      "perir": 9141,
      "sedia": 9142,
      "pigri": 9143,
      "decor": 9144,
      "unqu": 9145,
      "meza": 9146,
      "vezzo": 9147,
      "costretto": 9148,
      "rasser": 9149,
      "ravenna": 9150,
      "asino": 9151,
      "dallo": 9152,
      "dond": 9153,
      "portan": 9154,
      "accolta": 9155,
      "##cchier": 9156,
      "vass": 9157,
      "##mbri": 9158,
      "trover": 9159,
      "staa": 9160,
      "baciar": 9161,
      "##ssen": 9162,
      "piatto": 9163,
      "##ttan": 9164,
      "##cciola": 9165,
      "tenzone": 9166,
      "##stanza": 9167,
      "scure": 9168,
      "rompa": 9169,
      "poteo": 9170,
      "boschetto": 9171,
      "rimango": 9172,
      "havete": 9173,
      "potrete": 9174,
      "ccom": 9175,
      "correnti": 9176,
      "annel": 9177,
      "ambedue": 9178,
      "felicita": 9179,
      "eremita": 9180,
      "aggiunse": 9181,
      "sospinto": 9182,
      "scintilla": 9183,
      "publico": 9184,
      "ccre": 9185,
      "imbra": 9186,
      "mman": 9187,
      "ntorno": 9188,
      "rre": 9189,
      "ssenza": 9190,
      "tento": 9191,
      "##zera": 9192,
      "##yr": 9193,
      "dille": 9194,
      "##ostante": 9195,
      "sirene": 9196,
      "unir": 9197,
      "spesa": 9198,
      "##dace": 9199,
      "damor": 9200,
      "##vida": 9201,
      "mormora": 9202,
      "rettor": 9203,
      "scendi": 9204,
      "astri": 9205,
      "sonante": 9206,
      "cova": 9207,
      "desso": 9208,
      "mense": 9209,
      "trofeo": 9210,
      "petra": 9211,
      "frali": 9212,
      "##cciare": 9213,
      "bilan": 9214,
      "finestre": 9215,
      "ruin": 9216,
      "teneri": 9217,
      "stratio": 9218,
      "sentii": 9219,
      "sentieri": 9220,
      "benedetta": 9221,
      "ascosi": 9222,
      "invida": 9223,
      "consum": 9224,
      "discosto": 9225,
      "havrebbe": 9226,
      "laria": 9227,
      "altissimo": 9228,
      "minori": 9229,
      "pagana": 9230,
      "caritate": 9231,
      "soccorre": 9232,
      "naviganti": 9233,
      "sapeva": 9234,
      "consume": 9235,
      "estinti": 9236,
      "sorrise": 9237,
      "innocenti": 9238,
      "uccello": 9239,
      "##terea": 9240,
      "sapienza": 9241,
      "pelago": 9242,
      "ariodante": 9243,
      ");": 9244,
      "fele": 9245,
      "iri": 9246,
      "ttre": 9247,
      "##gelo": 9248,
      "##xit": 9249,
      "pisa": 9250,
      "netta": 9251,
      "ansel": 9252,
      "##glielmo": 9253,
      "pave": 9254,
      "pazzia": 9255,
      "podesta": 9256,
      "##git": 9257,
      "martoro": 9258,
      "vojjo": 9259,
      "##pecto": 9260,
      "menando": 9261,
      "peti": 9262,
      "nutre": 9263,
      "cuori": 9264,
      "piacente": 9265,
      "bramoso": 9266,
      "pianeti": 9267,
      "calar": 9268,
      "averlo": 9269,
      "ardisco": 9270,
      "olter": 9271,
      "greca": 9272,
      "disceso": 9273,
      "##turba": 9274,
      "tornata": 9275,
      "aprica": 9276,
      "lucidi": 9277,
      "iniqui": 9278,
      "cristiana": 9279,
      "silentio": 9280,
      "##ttuta": 9281,
      "lacrimando": 9282,
      "sepolta": 9283,
      "sepoltura": 9284,
      "estinta": 9285,
      "avviene": 9286,
      "facile": 9287,
      "rimirando": 9288,
      "disciolse": 9289,
      "semper": 9290,
      "labbri": 9291,
      "distrugge": 9292,
      "smari": 9293,
      "importuna": 9294,
      "sbigottito": 9295,
      "cimiero": 9296,
      "refri": 9297,
      "clima": 9298,
      "gravoso": 9299,
      "extremo": 9300,
      "abeti": 9301,
      "arnesi": 9302,
      "vennero": 9303,
      ").": 9304,
      "ape": 9305,
      "bolle": 9306,
      "fes": 9307,
      "##bant": 9308,
      "##elio": 9309,
      "##lita": 9310,
      "devi": 9311,
      "rivera": 9312,
      "andi": 9313,
      "dam": 9314,
      "future": 9315,
      "tegno": 9316,
[...]
